{
  "version": "1.0",
  "truncation": null,
  "padding": null,
  "added_tokens": [],
  "normalizer": null,
  "pre_tokenizer": {
    "type": "ByteLevel",
    "add_prefix_space": false,
    "trim_offsets": true,
    "use_regex": false
  },
  "post_processor": null,
  "decoder": {
    "type": "ByteLevel",
    "add_prefix_space": true,
    "trim_offsets": true,
    "use_regex": true
  },
  "model": {
    "type": "BPE",
    "dropout": null,
    "unk_token": null,
    "continuing_subword_prefix": null,
    "end_of_word_suffix": null,
    "fuse_unk": false,
    "byte_fallback": false,
    "ignore_merges": false,
    "vocab": {
      "Ā": 0,
      "ā": 1,
      "Ă": 2,
      "ă": 3,
      "Ą": 4,
      "ą": 5,
      "Ć": 6,
      "ć": 7,
      "Ĉ": 8,
      "ĉ": 9,
      "Ċ": 10,
      "ċ": 11,
      "Č": 12,
      "č": 13,
      "Ď": 14,
      "ď": 15,
      "Đ": 16,
      "đ": 17,
      "Ē": 18,
      "ē": 19,
      "Ĕ": 20,
      "ĕ": 21,
      "Ė": 22,
      "ė": 23,
      "Ę": 24,
      "ę": 25,
      "Ě": 26,
      "ě": 27,
      "Ĝ": 28,
      "ĝ": 29,
      "Ğ": 30,
      "ğ": 31,
      "Ġ": 32,
      "!": 33,
      "\"": 34,
      "#": 35,
      "$": 36,
      "%": 37,
      "&": 38,
      "'": 39,
      "(": 40,
      ")": 41,
      "*": 42,
      "+": 43,
      ",": 44,
      "-": 45,
      ".": 46,
      "/": 47,
      "0": 48,
      "1": 49,
      "2": 50,
      "3": 51,
      "4": 52,
      "5": 53,
      "6": 54,
      "7": 55,
      "8": 56,
      "9": 57,
      ":": 58,
      ";": 59,
      "<": 60,
      "=": 61,
      ">": 62,
      "?": 63,
      "@": 64,
      "A": 65,
      "B": 66,
      "C": 67,
      "D": 68,
      "E": 69,
      "F": 70,
      "G": 71,
      "H": 72,
      "I": 73,
      "J": 74,
      "K": 75,
      "L": 76,
      "M": 77,
      "N": 78,
      "O": 79,
      "P": 80,
      "Q": 81,
      "R": 82,
      "S": 83,
      "T": 84,
      "U": 85,
      "V": 86,
      "W": 87,
      "X": 88,
      "Y": 89,
      "Z": 90,
      "[": 91,
      "\\": 92,
      "]": 93,
      "^": 94,
      "_": 95,
      "`": 96,
      "a": 97,
      "b": 98,
      "c": 99,
      "d": 100,
      "e": 101,
      "f": 102,
      "g": 103,
      "h": 104,
      "i": 105,
      "j": 106,
      "k": 107,
      "l": 108,
      "m": 109,
      "n": 110,
      "o": 111,
      "p": 112,
      "q": 113,
      "r": 114,
      "s": 115,
      "t": 116,
      "u": 117,
      "v": 118,
      "w": 119,
      "x": 120,
      "y": 121,
      "z": 122,
      "{": 123,
      "|": 124,
      "}": 125,
      "~": 126,
      "ġ": 127,
      "Ģ": 128,
      "ģ": 129,
      "Ĥ": 130,
      "ĥ": 131,
      "Ħ": 132,
      "ħ": 133,
      "Ĩ": 134,
      "ĩ": 135,
      "Ī": 136,
      "ī": 137,
      "Ĭ": 138,
      "ĭ": 139,
      "Į": 140,
      "į": 141,
      "İ": 142,
      "ı": 143,
      "Ĳ": 144,
      "ĳ": 145,
      "Ĵ": 146,
      "ĵ": 147,
      "Ķ": 148,
      "ķ": 149,
      "ĸ": 150,
      "Ĺ": 151,
      "ĺ": 152,
      "Ļ": 153,
      "ļ": 154,
      "Ľ": 155,
      "ľ": 156,
      "Ŀ": 157,
      "ŀ": 158,
      "Ł": 159,
      "ł": 160,
      "¡": 161,
      "¢": 162,
      "£": 163,
      "¤": 164,
      "¥": 165,
      "¦": 166,
      "§": 167,
      "¨": 168,
      "©": 169,
      "ª": 170,
      "«": 171,
      "¬": 172,
      "Ń": 173,
      "®": 174,
      "¯": 175,
      "°": 176,
      "±": 177,
      "²": 178,
      "³": 179,
      "´": 180,
      "µ": 181,
      "¶": 182,
      "·": 183,
      "¸": 184,
      "¹": 185,
      "º": 186,
      "»": 187,
      "¼": 188,
      "½": 189,
      "¾": 190,
      "¿": 191,
      "À": 192,
      "Á": 193,
      "Â": 194,
      "Ã": 195,
      "Ä": 196,
      "Å": 197,
      "Æ": 198,
      "Ç": 199,
      "È": 200,
      "É": 201,
      "Ê": 202,
      "Ë": 203,
      "Ì": 204,
      "Í": 205,
      "Î": 206,
      "Ï": 207,
      "Ð": 208,
      "Ñ": 209,
      "Ò": 210,
      "Ó": 211,
      "Ô": 212,
      "Õ": 213,
      "Ö": 214,
      "×": 215,
      "Ø": 216,
      "Ù": 217,
      "Ú": 218,
      "Û": 219,
      "Ü": 220,
      "Ý": 221,
      "Þ": 222,
      "ß": 223,
      "à": 224,
      "á": 225,
      "â": 226,
      "ã": 227,
      "ä": 228,
      "å": 229,
      "æ": 230,
      "ç": 231,
      "è": 232,
      "é": 233,
      "ê": 234,
      "ë": 235,
      "ì": 236,
      "í": 237,
      "î": 238,
      "ï": 239,
      "ð": 240,
      "ñ": 241,
      "ò": 242,
      "ó": 243,
      "ô": 244,
      "õ": 245,
      "ö": 246,
      "÷": 247,
      "ø": 248,
      "ù": 249,
      "ú": 250,
      "û": 251,
      "ü": 252,
      "ý": 253,
      "þ": 254,
      "ÿ": 255,
      "Ġt": 256,
      "Ġa": 257,
      "he": 258,
      "in": 259,
      "re": 260,
      "Ġthe": 261,
      "on": 262,
      "er": 263,
      "Ġs": 264,
      "Ġw": 265,
      "at": 266,
      "Ġo": 267,
      "en": 268,
      "Ġc": 269,
      "it": 270,
      "is": 271,
      "an": 272,
      "or": 273,
      "Ġb": 274,
      "ed": 275,
      "es": 276,
      "Ġf": 277,
      "ing": 278,
      "Ġp": 279,
      "ou": 280,
      "Ġan": 281,
      "Ġto": 282,
      "al": 283,
      "ar": 284,
      "Ġm": 285,
      "Ġin": 286,
      "Ġof": 287,
      "Ġh": 288,
      "Ġd": 289,
      "âĢ": 290,
      "as": 291,
      "Ġand": 292,
      "ic": 293,
      "Ġth": 294,
      "le": 295,
      "om": 296,
      "ion": 297,
      "ll": 298,
      "ent": 299,
      "Ġn": 300,
      "Ġl": 301,
      "Ġre": 302,
      "st": 303,
      "ve": 304,
      "ly": 305,
      "Ġe": 306,
      "Ġbe": 307,
      "ro": 308,
      "Ġg": 309,
      "id": 310,
      "ut": 311,
      "ot": 312,
      "ac": 313,
      "ĠT": 314,
      "Ġthat": 315,
      "ĠI": 316,
      "Ġon": 317,
      "ay": 318,
      "ĠS": 319,
      "Ġis": 320,
      "im": 321,
      "et": 322,
      "am": 323,
      "ad": 324,
      "ow": 325,
      "se": 326,
      "Ġfor": 327,
      "ig": 328,
      "âĢĻ": 329,
      "ver": 330,
      "ĠA": 331,
      "ld": 332,
      "ur": 333,
      "ct": 334,
      "ĠC": 335,
      "Ġu": 336,
      "Ġst": 337,
      "Ġy": 338,
      "Ġit": 339,
      "Ġhe": 340,
      "ir": 341,
      "ation": 342,
      "ith": 343,
      "ĠM": 344,
      "Ġwh": 345,
      "ce": 346,
      "ter": 347,
      "Ġwe": 348,
      "ol": 349,
      "il": 350,
      "Ġwith": 351,
      "Ġas": 352,
      "ĠB": 353,
      "ch": 354,
      "ill": 355,
      "nd": 356,
      "ĠP": 357,
      "Ġwas": 358,
      "ers": 359,
      "Ġyou": 360,
      "ke": 361,
      "ĠâĢ": 362,
      "Ġcon": 363,
      "Ġde": 364,
      "Ġr": 365,
      "her": 366,
      "ate": 367,
      "if": 368,
      "Ġat": 369,
      "ag": 370,
      "Ġha": 371,
      "ĠW": 372,
      "ĠH": 373,
      "Ġse": 374,
      "ore": 375,
      "Ġpro": 376,
      "pp": 377,
      "ul": 378,
      "ri": 379,
      "ment": 380,
      "Ġ1": 381,
      "ĠD": 382,
      "Ġare": 383,
      "us": 384,
      "est": 385,
      "ist": 386,
      "ĠR": 387,
      "Ġcom": 388,
      "and": 389,
      "op": 390,
      "ain": 391,
      "ĠThe": 392,
      "Ġ2": 393,
      "igh": 394,
      "rom": 395,
      "Ġ(": 396,
      "th": 397,
      "od": 398,
      "Ġne": 399,
      "ĠF": 400,
      "um": 401,
      "âĢĿ": 402,
      "un": 403,
      "Ġex": 404,
      "ab": 405,
      "res": 406,
      "ĠN": 407,
      "Ġnot": 408,
      "Ġv": 409,
      "Ġhave": 410,
      "ess": 411,
      "ity": 412,
      "ould": 413,
      "Ġor": 414,
      "em": 415,
      "os": 416,
      "ort": 417,
      "Ġby": 418,
      "ĠG": 419,
      "ant": 420,
      "ive": 421,
      "Ġfrom": 422,
      "Ġal": 423,
      "'s": 424,
      "el": 425,
      "art": 426,
      "oc": 427,
      "Ġsu": 428,
      "ĠL": 429,
      "Ġsh": 430,
      "nt": 431,
      "Ġthis": 432,
      "qu": 433,
      "ight": 434,
      "pe": 435,
      "ust": 436,
      "Ġle": 437,
      "ies": 438,
      "00": 439,
      "ĠE": 440,
      "end": 441,
      "Ġsa": 442,
      "Ġch": 443,
      "out": 444,
      "Ġab": 445,
      "The": 446,
      "ie": 447,
      "all": 448,
      "ĠâĢľ": 449,
      "ack": 450,
      "red": 451,
      "ally": 452,
      "Ġhas": 453,
      "Ġpl": 454,
      "ĠJ": 455,
      "Ġgo": 456,
      "Ġhis": 457,
      "ard": 458,
      "ome": 459,
      "ear": 460,
      "iv": 461,
      "ost": 462,
      "gh": 463,
      "our": 464,
      "ap": 465,
      "Ġtr": 466,
      "ĠO": 467,
      "ast": 468,
      "Ġj": 469,
      "ak": 470,
      "ud": 471,
      "Ġwor": 472,
      "Ġdo": 473,
      "Ġthey": 474,
      "Ġbut": 475,
      "rou": 476,
      "Ġsaid": 477,
      "Ġwill": 478,
      "Ġcan": 479,
      "Ġwhe": 480,
      "ge": 481,
      "ĠU": 482,
      "Ġk": 483,
      "ich": 484,
      "ok": 485,
      "Ġall": 486,
      "Ġwho": 487,
      "Ġ\"": 488,
      "ide": 489,
      "Ġint": 490,
      "ans": 491,
      "ame": 492,
      "ther": 493,
      "Ġout": 494,
      "ial": 495,
      "Ġtheir": 496,
      "ff": 497,
      "ong": 498,
      "ect": 499,
      "ice": 500,
      "pl": 501,
      "age": 502,
      "ure": 503,
      "pt": 504,
      "one": 505,
      "Ġmore": 506,
      "ions": 507,
      "ike": 508,
      "Ġme": 509,
      "Ġup": 510,
      "act": 511,
      "ous": 512,
      "Ġad": 513,
      "ine": 514,
      "Ġabout": 515,
      "ĠK": 516,
      "ated": 517,
      "ber": 518,
      "ra": 519,
      "Ġwere": 520,
      "Ġone": 521,
      "Ġso": 522,
      "ia": 523,
      "ime": 524,
      "og": 525,
      "Ġus": 526,
      "Ġhad": 527,
      "ep": 528,
      "ub": 529,
      "are": 530,
      "ake": 531,
      "Ġwould": 532,
      "cc": 533,
      "01": 534,
      "Ġcl": 535,
      "Ġwhich": 536,
      "Ġag": 537,
      "Ġim": 538,
      "ind": 539,
      "ue": 540,
      "Ġcont": 541,
      "Ġte": 542,
      "very": 543,
      "Ġoff": 544,
      "iz": 545,
      "Ġbeen": 546,
      "Ġun": 547,
      "Ġcomp": 548,
      "ĠSt": 549,
      "au": 550,
      "so": 551,
      "per": 552,
      "ign": 553,
      "Ġen": 554,
      "ĠTh": 555,
      "ary": 556,
      "Ġyear": 557,
      "ip": 558,
      "ew": 559,
      "ace": 560,
      "Ġlike": 561,
      "ere": 562,
      "ook": 563,
      "ven": 564,
      "Ġman": 565,
      "ays": 566,
      "Ġinc": 567,
      "ose": 568,
      "ry": 569,
      "Ġpe": 570,
      "ite": 571,
      "Ġres": 572,
      "Ġper": 573,
      "able": 574,
      "Ġsp": 575,
      "ass": 576,
      "ire": 577,
      "ord": 578,
      "ĠIn": 579,
      "Ġother": 580,
      "ib": 581,
      "ile": 582,
      "mer": 583,
      "Ġsome": 584,
      "Ġ201": 585,
      "ence": 586,
      "ople": 587,
      "Ġover": 588,
      "ks": 589,
      "ations": 590,
      "ress": 591,
      "Ġthere": 592,
      "Ġdis": 593,
      "ical": 594,
      "Ġnew": 595,
      "int": 596,
      "ult": 597,
      "Ġalso": 598,
      "ount": 599,
      "Ġbec": 600,
      "own": 601,
      "ance": 602,
      "Ġar": 603,
      "Ġthan": 604,
      "ough": 605,
      "Ġthem": 606,
      "ru": 607,
      "Ġpart": 608,
      "port": 609,
      "Ġapp": 610,
      "ail": 611,
      "ree": 612,
      "Ġwhen": 613,
      "Ġwhat": 614,
      "ond": 615,
      "fter": 616,
      "Ġyour": 617,
      "ase": 618,
      "Ġpeople": 619,
      "av": 620,
      "Ġsc": 621,
      "ĠCh": 622,
      "orm": 623,
      "Ġqu": 624,
      "ĠY": 625,
      "Ġjust": 626,
      "Ġany": 627,
      "Ġits": 628,
      "Ġkn": 629,
      "Ġtime": 630,
      "ach": 631,
      "ĠIt": 632,
      "Ġher": 633,
      "lic": 634,
      "Ġmy": 635,
      ".âĢĿ": 636,
      "Ġrec": 637,
      "ens": 638,
      "Ġif": 639,
      "ian": 640,
      "Ġget": 641,
      "reat": 642,
      "ĠV": 643,
      "Ġ3": 644,
      "Ġinto": 645,
      "Ġtw": 646,
      "irst": 647,
      "ound": 648,
      "Ġwork": 649,
      "vel": 650,
      "ction": 651,
      "du": 652,
      "ob": 653,
      "ings": 654,
      "ory": 655,
      "Ġ-": 656,
      "ick": 657,
      "ition": 658,
      "Ġour": 659,
      "ors": 660,
      "ident": 661,
      "Ġno": 662,
      "Ġpre": 663,
      "Ġplay": 664,
      "ove": 665,
      "ang": 666,
      "ause": 667,
      "ink": 668,
      "wn": 669,
      "ade": 670,
      "te": 671,
      "hing": 672,
      "ates": 673,
      "ark": 674,
      "Ġro": 675,
      "amp": 676,
      ",âĢĿ": 677,
      "Ġ19": 678,
      "vers": 679,
      "Ġshe": 680,
      "Ġpol": 681,
      "Ġafter": 682,
      "ĠHe": 683,
      "Ġco": 684,
      "Ġfirst": 685,
      "Ġcould": 686,
      "'t": 687,
      "ild": 688,
      "ne": 689,
      "ious": 690,
      "nder": 691,
      "Ġhow": 692,
      "ons": 693,
      "Ġhim": 694,
      "Ġacc": 695,
      "aw": 696,
      "Ġpo": 697,
      "Ġatt": 698,
      "Ġfe": 699,
      "ov": 700,
      "Ġonly": 701,
      "hed": 702,
      "ict": 703,
      "Ġtwo": 704,
      "Ġpr": 705,
      "âĢľ": 706,
      "rit": 707,
      "erv": 708,
      "ish": 709,
      "Ġcomm": 710,
      "Ġspe": 711,
      "we": 712,
      "Ġact": 713,
      "Ġdec": 714,
      "form": 715,
      "Ġbet": 716,
      "Ġbl": 717,
      "..": 718,
      ".\"": 719,
      "ft": 720,
      "ning": 721,
      "Ġback": 722,
      "ces": 723,
      "Ġmost": 724,
      "ĠâĢĵ": 725,
      "ck": 726,
      "Ġam": 727,
      "ood": 728,
      "Ġdid": 729,
      "oy": 730,
      "ater": 731,
      "Ġagain": 732,
      "rough": 733,
      "round": 734,
      "ise": 735,
      "iff": 736,
      "Ġ4": 737,
      "Ġunder": 738,
      "Ġwant": 739,
      "day": 740,
      "ual": 741,
      "Ġ$": 742,
      "ull": 743,
      "Ġbecause": 744,
      "sel": 745,
      "Ġcons": 746,
      "Ġdes": 747,
      "ublic": 748,
      "Ġnow": 749,
      "Ġyears": 750,
      "lud": 751,
      "Ġknow": 752,
      "iss": 753,
      "ĠâĢĶ": 754,
      "ents": 755,
      "ec": 756,
      "man": 757,
      "tern": 758,
      "Ġinv": 759,
      "Ġneed": 760,
      "Ġeven": 761,
      ",\"": 762,
      "ĠWe": 763,
      "Ġadd": 764,
      "ments": 765,
      "old": 766,
      "Ġsee": 767,
      "itt": 768,
      "ced": 769,
      "Ġsec": 770,
      "urn": 771,
      "Ġind": 772,
      "fore": 773,
      "uch": 774,
      "Ġ5": 775,
      "Ġevery": 776,
      "Ġsupp": 777,
      "ĠUn": 778,
      "Ġmake": 779,
      "pect": 780,
      "Ġwhere": 781,
      "Ġthese": 782,
      "ock": 783,
      "oll": 784,
      "ject": 785,
      "Ġem": 786,
      "In": 787,
      "ational": 788,
      "ĠAnd": 789,
      "vern": 790,
      "Ġdon": 791,
      "Ġbu": 792,
      "xt": 793,
      "Ġlook": 794,
      "oss": 795,
      "Th": 796,
      "Ġway": 797,
      "ump": 798,
      "Ġev": 799,
      "Ġbeing": 800,
      "ating": 801,
      "Ġmany": 802,
      "ĠTr": 803,
      "ily": 804,
      "Ġrem": 805,
      "lect": 806,
      "ason": 807,
      "Ġright": 808,
      "ng": 809,
      "ĠBut": 810,
      "row": 811,
      "Ġmay": 812,
      "Ġthen": 813,
      "iew": 814,
      "Ġrel": 815,
      "Ġdef": 816,
      "Ġ[": 817,
      "Ġcall": 818,
      "Ġthink": 819,
      "aking": 820,
      "ont": 821,
      ").": 822,
      "ied": 823,
      "Ġinclud": 824,
      "Ġdiff": 825,
      "ased": 826,
      "Ġreg": 827,
      "ited": 828,
      "rib": 829,
      "les": 830,
      "Ġimp": 831,
      "Ġthrough": 832,
      "Ġsay": 833,
      "Ġshould": 834,
      "ath": 835,
      "Ġvery": 836,
      "other": 837,
      "Ġlast": 838,
      "Ġthose": 839,
      "uring": 840,
      "meric": 841,
      "Ġpres": 842,
      "Ġshow": 843,
      "Ġfl": 844,
      "Ġsy": 845,
      "ss": 846,
      "ell": 847,
      "Ġ200": 848,
      "Ġmuch": 849,
      "Ġstate": 850,
      "ific": 851,
      "ities": 852,
      "ative": 853,
      "ower": 854,
      "ĠWh": 855,
      "Ġbr": 856,
      "ty": 857,
      "hen": 858,
      "Ġph": 859,
      "ĠThis": 860,
      "oth": 861,
      "Ġwell": 862,
      "Ġass": 863,
      "Ġcount": 864,
      "Ġbel": 865,
      "ics": 866,
      "Ġdown": 867,
      "und": 868,
      "als": 869,
      "arly": 870,
      "Ġdoes": 871,
      "Ġown": 872,
      "Ġend": 873,
      "arg": 874,
      "ting": 875,
      "Ġlong": 876,
      "ange": 877,
      "omet": 878,
      "Ġmon": 879,
      "ward": 880,
      "ince": 881,
      "ters": 882,
      "Ġuse": 883,
      "Ġbefore": 884,
      "ible": 885,
      "Ġstart": 886,
      "up": 887,
      "gr": 888,
      "Ġgovern": 889,
      "Ġreport": 890,
      "ĠAmeric": 891,
      "ĠNew": 892,
      "Ġteam": 893,
      "Ġfin": 894,
      "Ġke": 895,
      "ts": 896,
      "ues": 897,
      "ife": 898,
      "Ġmade": 899,
      "âĢĶ": 900,
      "oun": 901,
      "ek": 902,
      "olog": 903,
      "ren": 904,
      "com": 905,
      "erson": 906,
      "ble": 907,
      "),": 908,
      "Ġsuch": 909,
      "ener": 910,
      "Ġgoing": 911,
      "Ġsm": 912,
      "ix": 913,
      "ility": 914,
      "Ġworld": 915,
      "lp": 916,
      "ually": 917,
      "ism": 918,
      "Ġstud": 919,
      "ful": 920,
      "ists": 921,
      "Ġsub": 922,
      "Ġgood": 923,
      "Ġagainst": 924,
      "tain": 925,
      "Ġac": 926,
      "It": 927,
      "Ġgu": 928,
      "Ġeff": 929,
      "its": 930,
      "roup": 931,
      "Ġgame": 932,
      "Ġsur": 933,
      "ork": 934,
      "Ġent": 935,
      "ys": 936,
      "Ġpoint": 937,
      "ars": 938,
      "000": 939,
      "illion": 940,
      "Ġprov": 941,
      "Ġstill": 942,
      "Ġset": 943,
      "Ġ6": 944,
      "li": 945,
      "gan": 946,
      "Ġwhile": 947,
      "imes": 948,
      "Ġhelp": 949,
      "Ġlead": 950,
      "stem": 951,
      "Ġsays": 952,
      "ank": 953,
      "ween": 954,
      "cy": 955,
      "ef": 956,
      "Ġgr": 957,
      "ax": 958,
      "Ġmin": 959,
      "ool": 960,
      "cess": 961,
      "Ġprodu": 962,
      "ms": 963,
      "ah": 964,
      "alk": 965,
      "uss": 966,
      "arch": 967,
      "Ġinter": 968,
      "Ġstr": 969,
      "Ġconf": 970,
      "Ġtake": 971,
      "Ġob": 972,
      "self": 973,
      "Ġinst": 974,
      "Ġsim": 975,
      "io": 976,
      "Ġoffic": 977,
      "Ġcol": 978,
      "air": 979,
      "Ġcr": 980,
      "Ġthough": 981,
      "Ġed": 982,
      "Ġdisc": 983,
      "Ġbetween": 984,
      "ever": 985,
      "ollow": 986,
      "Ġsign": 987,
      "land": 988,
      "Ġsame": 989,
      "Ġdiffere": 990,
      "ures": 991,
      "Ġlaw": 992,
      "atch": 993,
      "Ġhigh": 994,
      "read": 995,
      "led": 996,
      "Ġop": 997,
      "ution": 998,
      "Ġnum": 999,
      "gg": 1000,
      "--": 1001,
      "any": 1002,
      "hip": 1003,
      "ĠRe": 1004,
      "Ġsomet": 1005,
      "way": 1006,
      "ner": 1007,
      "ames": 1008,
      "Ġgovernment": 1009,
      "Ġref": 1010,
      "cent": 1011,
      "hes": 1012,
      "Ġter": 1013,
      "Ġtrans": 1014,
      "velop": 1015,
      "We": 1016,
      "Ġser": 1017,
      "Ġthree": 1018,
      "Ġhere": 1019,
      "ouse": 1020,
      "Ġaround": 1021,
      "Ġ10": 1022,
      "Ġfound": 1023,
      "ave": 1024,
      "ives": 1025,
      "Ġmed": 1026,
      "Ġins": 1027,
      "oot": 1028,
      "ather": 1029,
      "ĠAr": 1030,
      "Ġrun": 1031,
      "ci": 1032,
      "ten": 1033,
      "ved": 1034,
      "Ġreally": 1035,
      "Ġgroup": 1036,
      "ets": 1037,
      "Ġreal": 1038,
      "cept": 1039,
      "Ġmem": 1040,
      "Ġwom": 1041,
      "Ġexp": 1042,
      "ĠLe": 1043,
      "ins": 1044,
      "Ġused": 1045,
      "ving": 1046,
      "Ġpublic": 1047,
      "az": 1048,
      "ĠYou": 1049,
      "ale": 1050,
      "cer": 1051,
      "Ġret": 1052,
      "Ġcour": 1053,
      "Ġsupport": 1054,
      "Ġ7": 1055,
      "con": 1056,
      "Ġsystem": 1057,
      ".[": 1058,
      "pr": 1059,
      "irect": 1060,
      "Ġmod": 1061,
      "Ġhand": 1062,
      "Ġspec": 1063,
      "alth": 1064,
      "ying": 1065,
      "Ġgreat": 1066,
      "Ġcar": 1067,
      "Ġfact": 1068,
      "ĠTrump": 1069,
      "Ġday": 1070,
      "ton": 1071,
      "Ġexper": 1072,
      "Ġcur": 1073,
      "ense": 1074,
      "Ġhapp": 1075,
      "ph": 1076,
      "Ġfr": 1077,
      "Ġfam": 1078,
      "oh": 1079,
      "ĠAl": 1080,
      "ĠIs": 1081,
      "ĠThey": 1082,
      "Ġboth": 1083,
      "Ġext": 1084,
      "Ġcap": 1085,
      "min": 1086,
      "Ġread": 1087,
      "ices": 1088,
      "ĠCom": 1089,
      "ĠSh": 1090,
      "Ġserv": 1091,
      "Ġsl": 1092,
      "Ġfind": 1093,
      "uth": 1094,
      "Ġduring": 1095,
      "ĠCl": 1096,
      "Ġrep": 1097,
      "ered": 1098,
      "Ġmonth": 1099,
      "ular": 1100,
      "Ġdet": 1101,
      "the": 1102,
      "ĠAs": 1103,
      "ines": 1104,
      "Ġtold": 1105,
      "Ġ8": 1106,
      "Ġbig": 1107,
      "ision": 1108,
      "Ġweek": 1109,
      "Ġfollow": 1110,
      "Ġperson": 1111,
      "Ġdevelop": 1112,
      "ivers": 1113,
      "Ġsince": 1114,
      "Ġiss": 1115,
      "med": 1116,
      "ared": 1117,
      "Ġcent": 1118,
      "akes": 1119,
      "ically": 1120,
      "Ġcre": 1121,
      "ages": 1122,
      "ash": 1123,
      "Ġfew": 1124,
      "ording": 1125,
      "ex": 1126,
      "Ġpolit": 1127,
      "aj": 1128,
      "Wh": 1129,
      "arn": 1130,
      "get": 1131,
      "Ġbelie": 1132,
      "Ġleg": 1133,
      "Ġopp": 1134,
      "ves": 1135,
      "rent": 1136,
      "Ġtoo": 1137,
      "Ġexpl": 1138,
      "ric": 1139,
      "__": 1140,
      "chool": 1141,
      "Ġrequ": 1142,
      "Ġlot": 1143,
      "iet": 1144,
      "Ġcontin": 1145,
      "Ġanother": 1146,
      "Ġresp": 1147,
      "Ġgener": 1148,
      "Ġ0": 1149,
      "der": 1150,
      "Ġput": 1151,
      "ĠSe": 1152,
      "ata": 1153,
      "Ġsomething": 1154,
      "Ġ9": 1155,
      "Ġprot": 1156,
      "Ġcle": 1157,
      "Ġinf": 1158,
      "Ġrele": 1159,
      "ention": 1160,
      "Ġvot": 1161,
      "anc": 1162,
      "tt": 1163,
      "bers": 1164,
      "Ġfil": 1165,
      "ĠIf": 1166,
      "Ġcor": 1167,
      "Ġplan": 1168,
      "Ġinvest": 1169,
      "Ġdifferent": 1170,
      "Ġcamp": 1171,
      "Ġsoc": 1172,
      "Ġloc": 1173,
      "ross": 1174,
      "ox": 1175,
      "uc": 1176,
      "ute": 1177,
      "ĠDe": 1178,
      "Ġhead": 1179,
      "Ġlife": 1180,
      "ness": 1181,
      "Ġchild": 1182,
      "ized": 1183,
      "Ġfar": 1184,
      "Ġthings": 1185,
      "ik": 1186,
      "Ġask": 1187,
      "ody": 1188,
      "Ġche": 1189,
      "thing": 1190,
      "att": 1191,
      "Ġpower": 1192,
      "Ġart": 1193,
      "Ġcommun": 1194,
      "erest": 1195,
      "Ġpass": 1196,
      "This": 1197,
      "view": 1198,
      "Ġposs": 1199,
      "ĠFr": 1200,
      "Ġnever": 1201,
      "Ġquest": 1202,
      "ier": 1203,
      "Ġnext": 1204,
      "ience": 1205,
      "Ġchar": 1206,
      "Ġgot": 1207,
      "Ġdep": 1208,
      "Ġadv": 1209,
      "Ġcome": 1210,
      "Ġmight": 1211,
      "Ġeach": 1212,
      "ants": 1213,
      "Ġ'": 1214,
      "Ġsecond": 1215,
      "ital": 1216,
      "ield": 1217,
      "iness": 1218,
      "Ġmet": 1219,
      "ĠAn": 1220,
      "Ġmark": 1221,
      "Ġbus": 1222,
      "Ġbest": 1223,
      "ize": 1224,
      "ĠThat": 1225,
      "ĠâĢĺ": 1226,
      "ient": 1227,
      "Ġopen": 1228,
      "Ġdem": 1229,
      "nce": 1230,
      "Ġallow": 1231,
      "ug": 1232,
      "Ġseem": 1233,
      "ittle": 1234,
      "orn": 1235,
      "Ġdirect": 1236,
      "ĠPro": 1237,
      "ĠUS": 1238,
      "ling": 1239,
      "Ġhome": 1240,
      "Ġfeel": 1241,
      "ĠFor": 1242,
      "Ġpercent": 1243,
      "Ġpost": 1244,
      "ired": 1245,
      "ple": 1246,
      "istr": 1247,
      "Ġ.": 1248,
      "Ġpri": 1249,
      "Ġmillion": 1250,
      "son": 1251,
      "osed": 1252,
      "less": 1253,
      "gram": 1254,
      "Ġincre": 1255,
      "Ġplace": 1256,
      "Ġcare": 1257,
      "Ġav": 1258,
      "Ġresult": 1259,
      "ret": 1260,
      "Ġincluding": 1261,
      "Ġcontro": 1262,
      "ĠRep": 1263,
      "chn": 1264,
      "Ġwar": 1265,
      "Ġimport": 1266,
      "co": 1267,
      "conom": 1268,
      "Ġtop": 1269,
      "Ġhard": 1270,
      "ĠBl": 1271,
      "ately": 1272,
      "Ġcomple": 1273,
      "ably": 1274,
      "oney": 1275,
      "Ġhum": 1276,
      "Ġbuild": 1277,
      "Ġide": 1278,
      "Ġinform": 1279,
      "Ġwithout": 1280,
      "Ġel": 1281,
      "Ġnumber": 1282,
      "ral": 1283,
      "aim": 1284,
      "Ġproble": 1285,
      "Ġbetter": 1286,
      "Ġcountry": 1287,
      "ama": 1288,
      "Ġfour": 1289,
      "rat": 1290,
      "Ġgl": 1291,
      "Ġseason": 1292,
      "uro": 1293,
      "ished": 1294,
      "Ġtri": 1295,
      "riend": 1296,
      "ways": 1297,
      "gy": 1298,
      "Ġmil": 1299,
      "Ġstand": 1300,
      "But": 1301,
      "Ġturn": 1302,
      "Ġmov": 1303,
      "Ġinterest": 1304,
      "line": 1305,
      "Ġrecent": 1306,
      "ead": 1307,
      "ĠInd": 1308,
      "ĠZ": 1309,
      "Ġpartic": 1310,
      "cl": 1311,
      "Ġcalled": 1312,
      "Ġless": 1313,
      "Ġlittle": 1314,
      "Ġcase": 1315,
      "Ġann": 1316,
      "Ġbeh": 1317,
      "Ġattack": 1318,
      "Ġbro": 1319,
      "ised": 1320,
      "Ġappro": 1321,
      "Ġlet": 1322,
      "app": 1323,
      "ency": 1324,
      "me": 1325,
      "Ġdidn": 1326,
      "ina": 1327,
      "Ġrest": 1328,
      "Ġdr": 1329,
      "Ġmove": 1330,
      "Ġpop": 1331,
      "Ġwomen": 1332,
      "Ġkeep": 1333,
      "Ġmain": 1334,
      "Ġleft": 1335,
      "ĠThere": 1336,
      "ajor": 1337,
      "leg": 1338,
      "Ġ20": 1339,
      "Ġfull": 1340,
      "ider": 1341,
      "ann": 1342,
      "Ġpay": 1343,
      "vious": 1344,
      "Ġschool": 1345,
      "ger": 1346,
      "Ġwin": 1347,
      "be": 1348,
      "ode": 1349,
      "Ġusing": 1350,
      "Ġtest": 1351,
      "Ġeffect": 1352,
      "ted": 1353,
      "ract": 1354,
      "Ġeconom": 1355,
      "ature": 1356,
      "Ġprogram": 1357,
      "Ġnews": 1358,
      "Ġfun": 1359,
      "ains": 1360,
      "Ġwrit": 1361,
      "Ġform": 1362,
      "uck": 1363,
      "ided": 1364,
      "Ġlist": 1365,
      "Ġpos": 1366,
      "Ġpolice": 1367,
      "ready": 1368,
      "ology": 1369,
      "inal": 1370,
      "'re": 1371,
      "Ġsmall": 1372,
      "arge": 1373,
      "Ġgiv": 1374,
      "ined": 1375,
      "He": 1376,
      "ĠSo": 1377,
      "ĠAmerican": 1378,
      "Ġ--": 1379,
      "Ġprocess": 1380,
      "ird": 1381,
      "10": 1382,
      "Ġdata": 1383,
      "...": 1384,
      "Ġval": 1385,
      "Ġcompany": 1386,
      "Ġrece": 1387,
      "Ġprom": 1388,
      "ians": 1389,
      "Ġcurrent": 1390,
      "to": 1391,
      "Ġchange": 1392,
      "orth": 1393,
      "used": 1394,
      "Ġlevel": 1395,
      "Ġpresident": 1396,
      "rap": 1397,
      "Ġeas": 1398,
      "Ġdri": 1399,
      "ploy": 1400,
      "Ġbook": 1401,
      "Ġbre": 1402,
      "Ġalready": 1403,
      "Ġhist": 1404,
      "ohn": 1405,
      "Ġmat": 1406,
      "aign": 1407,
      "Ġlater": 1408,
      "Ġwhy": 1409,
      "reen": 1410,
      "Ġmoney": 1411,
      "ĠUnited": 1412,
      "Ġunt": 1413,
      "iversity": 1414,
      "Ġalways": 1415,
      "Ġbo": 1416,
      "Ġofficial": 1417,
      "Ġ12": 1418,
      "ĠPh": 1419,
      "ruct": 1420,
      "Ġtechn": 1421,
      "Ġjob": 1422,
      "ron": 1423,
      "Ġexpect": 1424,
      "Ġsol": 1425,
      "Ġthing": 1426,
      "Ġmajor": 1427,
      "aff": 1428,
      "Ġstory": 1429,
      "Ġorgan": 1430,
      "ĠHow": 1431,
      "Ġbusiness": 1432,
      "stand": 1433,
      "Ġoper": 1434,
      "Ġrese": 1435,
      "Ġclaim": 1436,
      "Ġproject": 1437,
      "lection": 1438,
      "Ġhealth": 1439,
      "Ġtalk": 1440,
      "St": 1441,
      "Ġable": 1442,
      "Ġprof": 1443,
      "Ġfree": 1444,
      "Ġclass": 1445,
      "ards": 1446,
      "outh": 1447,
      "Ġchang": 1448,
      "ases": 1449,
      "wit": 1450,
      "Ġpast": 1451,
      "ption": 1452,
      "ĠBe": 1453,
      "ertain": 1454,
      "ĠShe": 1455,
      "Ġpur": 1456,
      "Ġmen": 1457,
      "Ġty": 1458,
      "rist": 1459,
      "ĠQ": 1460,
      "ĠOb": 1461,
      "here": 1462,
      "Ġinformation": 1463,
      "ior": 1464,
      "Ġsk": 1465,
      "Ġmust": 1466,
      "Ġhappen": 1467,
      "Ġold": 1468,
      "Ġvis": 1469,
      "Ġcampaign": 1470,
      "Ġdesign": 1471,
      "ney": 1472,
      "ury": 1473,
      "Ġaway": 1474,
      "Ġest": 1475,
      "ission": 1476,
      "Ġcost": 1477,
      "ural": 1478,
      "ending": 1479,
      "Ġ18": 1480,
      "ĠAd": 1481,
      "Ġimportant": 1482,
      "Ġkill": 1483,
      "ern": 1484,
      "ĠCan": 1485,
      "Ġdoesn": 1486,
      "ott": 1487,
      "Ġpat": 1488,
      "acy": 1489,
      "Ġleast": 1490,
      "sc": 1491,
      "Ġdist": 1492,
      "uthor": 1493,
      "Ġedit": 1494,
      "by": 1495,
      "Ġtell": 1496,
      "Ġhop": 1497,
      "side": 1498,
      "Ġcity": 1499,
      "ator": 1500,
      "Ġstre": 1501,
      "ample": 1502,
      "ured": 1503,
      "ides": 1504,
      "resident": 1505,
      "Ġgrow": 1506,
      "Ġcame": 1507,
      "urity": 1508,
      "Ġkind": 1509,
      "ĠGo": 1510,
      "Ġaff": 1511,
      "ained": 1512,
      "Ġview": 1513,
      "Ġ|": 1514,
      "els": 1515,
      "ĠMar": 1516,
      "Ġdays": 1517,
      "Ġenough": 1518,
      "Ġmaking": 1519,
      "ley": 1520,
      "Ġelect": 1521,
      "âĢ¦": 1522,
      "Ġvar": 1523,
      "Ġconst": 1524,
      "ccess": 1525,
      "50": 1526,
      "ĠSp": 1527,
      "Ġdeal": 1528,
      "Ġmar": 1529,
      "Ġfamily": 1530,
      "Ġfriend": 1531,
      "ived": 1532,
      "ries": 1533,
      "ising": 1534,
      "Ġpolic": 1535,
      "oad": 1536,
      "ality": 1537,
      "Ġrecord": 1538,
      "Ġpolitical": 1539,
      "Ġworking": 1540,
      "ush": 1541,
      "Ġsit": 1542,
      "pped": 1543,
      "Ġlarge": 1544,
      "Ġ=": 1545,
      "ror": 1546,
      "eral": 1547,
      "ional": 1548,
      "Ġtook": 1549,
      "Ġuntil": 1550,
      "ering": 1551,
      "Ġtax": 1552,
      "ĠRuss": 1553,
      "ued": 1554,
      "ĠComm": 1555,
      "augh": 1556,
      "ĠRepublic": 1557,
      "As": 1558,
      "Ġfore": 1559,
      "ified": 1560,
      "ee": 1561,
      "arent": 1562,
      "aining": 1563,
      "br": 1564,
      "ĠJohn": 1565,
      "Ġintern": 1566,
      "Ġwon": 1567,
      "alf": 1568,
      "Ġline": 1569,
      "If": 1570,
      "ister": 1571,
      "ocrat": 1572,
      "Ġactually": 1573,
      "Ġformer": 1574,
      "Ġmean": 1575,
      "Ġbecome": 1576,
      "Ġvide": 1577,
      "ĠSc": 1578,
      "Ġ199": 1579,
      "year": 1580,
      "Ġes": 1581,
      "iol": 1582,
      "ĠEuro": 1583,
      "Ġve": 1584,
      "Ġfund": 1585,
      "Ġgive": 1586,
      "enn": 1587,
      "ony": 1588,
      "bs": 1589,
      "ember": 1590,
      "ĠMc": 1591,
      "Ġair": 1592,
      "Ġoften": 1593,
      "ison": 1594,
      "Ġgames": 1595,
      "ĠSy": 1596,
      "work": 1597,
      "Ġever": 1598,
      "Ġreturn": 1599,
      "ĠPl": 1600,
      "aring": 1601,
      "Ġword": 1602,
      "Ġaccording": 1603,
      "aps": 1604,
      "Ġbas": 1605,
      "most": 1606,
      "ĠAll": 1607,
      "Ġtimes": 1608,
      "Ġappear": 1609,
      "Ġhuman": 1610,
      "wh": 1611,
      "ĠDem": 1612,
      "eng": 1613,
      "ĠMay": 1614,
      "oint": 1615,
      "Ġbit": 1616,
      "idd": 1617,
      "ither": 1618,
      "Ġsever": 1619,
      "Ġra": 1620,
      "12": 1621,
      "ats": 1622,
      "gin": 1623,
      "ware": 1624,
      "Ġorder": 1625,
      "Ġla": 1626,
      "Ġchildren": 1627,
      "Ġwr": 1628,
      "Ġfac": 1629,
      "ane": 1630,
      "for": 1631,
      "uture": 1632,
      "Ġplayers": 1633,
      "icle": 1634,
      "19": 1635,
      "Ġname": 1636,
      "Ġdeb": 1637,
      "Ġcharac": 1638,
      "iqu": 1639,
      "Ġnight": 1640,
      "Ġperform": 1641,
      "Ġdev": 1642,
      "Ġsing": 1643,
      "ization": 1644,
      "Ġdoing": 1645,
      "There": 1646,
      "raft": 1647,
      "ER": 1648,
      "Ġpar": 1649,
      "vert": 1650,
      "Ġearly": 1651,
      "ots": 1652,
      "ched": 1653,
      "Ġquestion": 1654,
      "Ġmarket": 1655,
      "Ġtoday": 1656,
      "idence": 1657,
      "ĠPresident": 1658,
      "Ġhaving": 1659,
      "Ġpress": 1660,
      "Ġsocial": 1661,
      "Ġprop": 1662,
      "aken": 1663,
      "mber": 1664,
      "Ġwhether": 1665,
      "Ġmedia": 1666,
      "Ġ15": 1667,
      "rop": 1668,
      "ĠAt": 1669,
      "Ġcrit": 1670,
      "Ġyoung": 1671,
      "Ġseen": 1672,
      "Ġseveral": 1673,
      "ĠOr": 1674,
      "Ġsex": 1675,
      "Ġmilit": 1676,
      "Ġfive": 1677,
      "Ġmeet": 1678,
      "Ġwater": 1679,
      "Ġequ": 1680,
      "une": 1681,
      "ĠCon": 1682,
      "//": 1683,
      "Ġevent": 1684,
      "Ġwent": 1685,
      "Ġ]": 1686,
      "ĠYork": 1687,
      "Ġpot": 1688,
      "Ġlikely": 1689,
      "artment": 1690,
      "ories": 1691,
      "ended": 1692,
      "Ġocc": 1693,
      "Ġear": 1694,
      "Ġhour": 1695,
      "let": 1696,
      "sh": 1697,
      "ĠMr": 1698,
      "Ġcertain": 1699,
      "Ġsure": 1700,
      "ially": 1701,
      "Ġcontrol": 1702,
      "ands": 1703,
      "Ġinvol": 1704,
      "ene": 1705,
      "ourn": 1706,
      "ium": 1707,
      "Ġarg": 1708,
      "Ġ11": 1709,
      "Ġside": 1710,
      "Ġant": 1711,
      "Ġshort": 1712,
      "ĠEurope": 1713,
      "Ġfight": 1714,
      "And": 1715,
      "Ġdone": 1716,
      "Ġamong": 1717,
      "ĠNo": 1718,
      "Ġsuccess": 1719,
      "ĠCol": 1720,
      "Ġmonths": 1721,
      "Ġmembers": 1722,
      "ĠStates": 1723,
      "Ġalong": 1724,
      "ential": 1725,
      "ball": 1726,
      "ald": 1727,
      "uff": 1728,
      "iting": 1729,
      "Ġvers": 1730,
      "Ġexample": 1731,
      "imate": 1732,
      "ague": 1733,
      "20": 1734,
      "ster": 1735,
      "iver": 1736,
      "urs": 1737,
      "Ġonce": 1738,
      "Ġcourse": 1739,
      "Ġ,": 1740,
      "Ġwithin": 1741,
      "verage": 1742,
      "Ġconcer": 1743,
      "ĠState": 1744,
      "Ġeng": 1745,
      "Ġfuture": 1746,
      "Ġi": 1747,
      "rew": 1748,
      "Ġactiv": 1749,
      "ortun": 1750,
      "Ġpossible": 1751,
      "Ġcho": 1752,
      "empt": 1753,
      "Ġ:": 1754,
      "Ġavail": 1755,
      "Ġdesc": 1756,
      "Ġyet": 1757,
      "ggest": 1758,
      "Ġ&": 1759,
      "ĠTe": 1760,
      "Ġasked": 1761,
      "Ġunderstand": 1762,
      "ler": 1763,
      "Ġinvestig": 1764,
      "Ġhold": 1765,
      "Ġfail": 1766,
      "11": 1767,
      "Ġviol": 1768,
      "ones": 1769,
      "inc": 1770,
      "Ġauthor": 1771,
      "lf": 1772,
      ".,": 1773,
      "Ġthought": 1774,
      "ubl": 1775,
      "Ġproduct": 1776,
      "Ġprotect": 1777,
      "iber": 1778,
      "Ġacross": 1779,
      "Ġgiven": 1780,
      "Ġproblem": 1781,
      "ober": 1782,
      "Ġnon": 1783,
      "Ġlocal": 1784,
      "vent": 1785,
      "ĠObama": 1786,
      "oci": 1787,
      "Ġsuggest": 1788,
      "Ġknown": 1789,
      "ĠOn": 1790,
      "Ġmeans": 1791,
      "ĠCar": 1792,
      "iving": 1793,
      "ĠWhen": 1794,
      "eb": 1795,
      "Ġreason": 1796,
      "Ġpriv": 1797,
      "gress": 1798,
      "itive": 1799,
      "por": 1800,
      "my": 1801,
      "Ġannoun": 1802,
      "You": 1803,
      "ĠBr": 1804,
      "orld": 1805,
      "Ġmakes": 1806,
      "ĠHouse": 1807,
      "ivid": 1808,
      "âĢĵ": 1809,
      "ulation": 1810,
      "nect": 1811,
      "ĠUniversity": 1812,
      "ĠChrist": 1813,
      "Ġcommunity": 1814,
      "back": 1815,
      "Ġ2016": 1816,
      "ensive": 1817,
      "Ġbelieve": 1818,
      "Ġreported": 1819,
      "Ġorig": 1820,
      "Ġlight": 1821,
      "Ġ#": 1822,
      "Ġstrong": 1823,
      "Ġprob": 1824,
      "ances": 1825,
      "Ġlim": 1826,
      "itions": 1827,
      "not": 1828,
      "Ġothers": 1829,
      "ored": 1830,
      "Ġben": 1831,
      "Ġca": 1832,
      "Ġsent": 1833,
      "ederal": 1834,
      "Ġcut": 1835,
      "'ve": 1836,
      "Ġcond": 1837,
      "rest": 1838,
      "aged": 1839,
      "Ġvideo": 1840,
      "iety": 1841,
      "ĠCo": 1842,
      "ament": 1843,
      "Ġident": 1844,
      "Ġmus": 1845,
      "Ġsour": 1846,
      "30": 1847,
      "Ġgetting": 1848,
      "urther": 1849,
      "ĠX": 1850,
      "Ġnational": 1851,
      "ĠMin": 1852,
      "Ġstarted": 1853,
      "aster": 1854,
      "lement": 1855,
      "Ġlove": 1856,
      "Ġlow": 1857,
      "Ġclose": 1858,
      "Ġavailable": 1859,
      "Ġ30": 1860,
      "book": 1861,
      "ashing": 1862,
      "Ġ2015": 1863,
      "ams": 1864,
      "Ġindust": 1865,
      "Ġparty": 1866,
      "Ġfollowing": 1867,
      "Ġseries": 1868,
      "Ġaccount": 1869,
      "ĠDemocrat": 1870,
      "arm": 1871,
      "Ġland": 1872,
      "Ġissue": 1873,
      "Ġcreat": 1874,
      "Ġtrying": 1875,
      "iron": 1876,
      "uly": 1877,
      "orts": 1878,
      "For": 1879,
      "Ġhig": 1880,
      "hers": 1881,
      "ĠCent": 1882,
      "Ġnet": 1883,
      "Ġmom": 1884,
      "Ġdeath": 1885,
      "Ġfoc": 1886,
      "Ġsaf": 1887,
      "Ġbased": 1888,
      "Ġhistory": 1889,
      "ief": 1890,
      "erence": 1891,
      "use": 1892,
      "selves": 1893,
      "of": 1894,
      "Ġemploy": 1895,
      "ĠAm": 1896,
      "Ġtoget": 1897,
      "ability": 1898,
      "Ġtogether": 1899,
      "inton": 1900,
      "resent": 1901,
      "Ġidea": 1902,
      "ators": 1903,
      "ĠWhat": 1904,
      "Ġ16": 1905,
      "Ġadded": 1906,
      "Ġago": 1907,
      "Ġalmost": 1908,
      "Ġcomes": 1909,
      "reed": 1910,
      "utes": 1911,
      "itional": 1912,
      "Ġtrad": 1913,
      "ination": 1914,
      "ĠBro": 1915,
      "ails": 1916,
      "though": 1917,
      "af": 1918,
      "Ġclear": 1919,
      "ilar": 1920,
      "rug": 1921,
      "'m": 1922,
      "ĠAmerica": 1923,
      "Ġisn": 1924,
      "pro": 1925,
      "ĠSen": 1926,
      "Ġanal": 1927,
      "ĠFl": 1928,
      "Ġimpro": 1929,
      "osp": 1930,
      "Ġlooking": 1931,
      "Ġfilm": 1932,
      "----": 1933,
      "Ġfav": 1934,
      "unch": 1935,
      "Ġ2014": 1936,
      "oto": 1937,
      "Ġexperience": 1938,
      "Ġpract": 1939,
      "Ġlive": 1940,
      "ĠCanad": 1941,
      "ĠEx": 1942,
      "Ġaccess": 1943,
      "ument": 1944,
      "Ġsix": 1945,
      "ai": 1946,
      "ttp": 1947,
      "AT": 1948,
      "Ġris": 1949,
      "Ġhalf": 1950,
      "ged": 1951,
      "What": 1952,
      "Ġanything": 1953,
      "ote": 1954,
      "ograp": 1955,
      "Ġcomplete": 1956,
      "ring": 1957,
      "Ġrul": 1958,
      "uge": 1959,
      "witter": 1960,
      "aid": 1961,
      "Ġmiss": 1962,
      "raw": 1963,
      "ert": 1964,
      "ĠPol": 1965,
      "ividual": 1966,
      "Ġmor": 1967,
      "Ġsaying": 1968,
      "ustom": 1969,
      "Ġarea": 1970,
      "wards": 1971,
      "____": 1972,
      "ĠOne": 1973,
      "cially": 1974,
      "ĠPr": 1975,
      "Ġcourt": 1976,
      "Ġpresent": 1977,
      "Ġbad": 1978,
      "Ġtaken": 1979,
      "Ġ14": 1980,
      "ministr": 1981,
      "Ġer": 1982,
      "Ġmilitary": 1983,
      "ien": 1984,
      "Ġbehind": 1985,
      "Ġnear": 1986,
      "Ġcompet": 1987,
      "Ġbill": 1988,
      "Ġtry": 1989,
      "rael": 1990,
      "Ġface": 1991,
      "erman": 1992,
      "Ġentire": 1993,
      "Ġvict": 1994,
      "sy": 1995,
      "Ġdiscuss": 1996,
      "ĠEng": 1997,
      "Ġtre": 1998,
      "Ġthreat": 1999,
      "Ġconcern": 2000,
      "Ġstudy": 2001,
      "aper": 2002,
      "Ġtot": 2003,
      "ĠÂ": 2004,
      "ĠTo": 2005,
      "Ġsecurity": 2006,
      "ĠSec": 2007,
      "An": 2008,
      "Ġmult": 2009,
      "Ġproper": 2010,
      "://": 2011,
      "ĠGr": 2012,
      "Ġpolicy": 2013,
      "201": 2014,
      "Ġprevious": 2015,
      "lling": 2016,
      "Ġfall": 2017,
      "Ġ13": 2018,
      "Ġplayer": 2019,
      "ĠNorth": 2020,
      "Ġrather": 2021,
      "ĠDon": 2022,
      "irc": 2023,
      "amed": 2024,
      "Ġaut": 2025,
      "ows": 2026,
      "Ġindividual": 2027,
      "igr": 2028,
      "Ġbring": 2029,
      "Ġmess": 2030,
      "ids": 2031,
      "ĠAf": 2032,
      "Ġwanted": 2033,
      "Ġquick": 2034,
      "ev": 2035,
      "Ġz": 2036,
      "Ġconsider": 2037,
      "Ġpubl": 2038,
      "Ġtaking": 2039,
      "IN": 2040,
      "ĠClinton": 2041,
      "Ġsingle": 2042,
      "Ġspecial": 2043,
      "Ġsum": 2044,
      "ĠBrit": 2045,
      "ĠWar": 2046,
      "Ġcomb": 2047,
      "Ġsal": 2048,
      "off": 2049,
      "nes": 2050,
      "Ġsomeone": 2051,
      "On": 2052,
      "atic": 2053,
      "Ġmind": 2054,
      "Ġcult": 2055,
      "play": 2056,
      "Ġblack": 2057,
      "Ġredu": 2058,
      "ĠNational": 2059,
      "Ġpret": 2060,
      "ĠCal": 2061,
      "par": 2062,
      "rote": 2063,
      "Ġjo": 2064,
      "Ġ17": 2065,
      "RE": 2066,
      "Ġsw": 2067,
      "Ad": 2068,
      "Ġsignific": 2069,
      ".)": 2070,
      "ĠDep": 2071,
      "ĠCity": 2072,
      "ĠWorld": 2073,
      "oon": 2074,
      "When": 2075,
      "ify": 2076,
      "Ġlearn": 2077,
      "Ġcou": 2078,
      "Ġattempt": 2079,
      "ply": 2080,
      "Ġservice": 2081,
      "Ġcompan": 2082,
      "ches": 2083,
      "Ġcoming": 2084,
      "Ġfront": 2085,
      "Ġelse": 2086,
      "ris": 2087,
      "go": 2088,
      "aces": 2089,
      "Ġfoot": 2090,
      "Ġdecision": 2091,
      "Ġprobably": 2092,
      "sw": 2093,
      "ran": 2094,
      "Ġ/": 2095,
      "irl": 2096,
      "elt": 2097,
      "Ġresearch": 2098,
      "Ġspace": 2099,
      "ĠMan": 2100,
      "Ġfood": 2101,
      "reme": 2102,
      "yn": 2103,
      "ming": 2104,
      "mb": 2105,
      "Ġpoints": 2106,
      "Ġkey": 2107,
      "ashington": 2108,
      "over": 2109,
      "Ġnothing": 2110,
      "Ġcoun": 2111,
      "Ġbody": 2112,
      "Ġwa": 2113,
      "ĠAust": 2114,
      "That": 2115,
      "lier": 2116,
      "cing": 2117,
      "Ġfeat": 2118,
      "Ġsus": 2119,
      "Ġhowever": 2120,
      "ĠHar": 2121,
      "asing": 2122,
      "amer": 2123,
      "Ġwrote": 2124,
      "Ġsimilar": 2125,
      "ully": 2126,
      "15": 2127,
      "Ġeither": 2128,
      "icult": 2129,
      "pping": 2130,
      "Ġcompl": 2131,
      "ault": 2132,
      "viron": 2133,
      "Ġ2013": 2134,
      "Ġbenef": 2135,
      "Ġdescrib": 2136,
      "Ġimm": 2137,
      "Ġrights": 2138,
      "ĠSu": 2139,
      "Ġdoc": 2140,
      "Ġexist": 2141,
      "ĠIm": 2142,
      "olution": 2143,
      "ĠIsrael": 2144,
      "Ġey": 2145,
      "Ã©": 2146,
      "Ġfurther": 2147,
      "lim": 2148,
      "Ġhit": 2149,
      "ON": 2150,
      "itted": 2151,
      "Ġissues": 2152,
      "Ġhouse": 2153,
      "Ġstop": 2154,
      "Ġenc": 2155,
      "Ġconnect": 2156,
      "Ġstates": 2157,
      "Ġchall": 2158,
      "Ġthird": 2159,
      "Ġcand": 2160,
      "ried": 2161,
      "Ġrepl": 2162,
      "rodu": 2163,
      "now": 2164,
      "Ġ2017": 2165,
      "Ġsuper": 2166,
      "ently": 2167,
      "Ġdue": 2168,
      "Ġroom": 2169,
      "So": 2170,
      "Ġofficials": 2171,
      "Ġmass": 2172,
      "Ġpick": 2173,
      "Ġfinal": 2174,
      "Ġleaders": 2175,
      "Ġdam": 2176,
      "Ġwhole": 2177,
      "pecially": 2178,
      "ĠGe": 2179,
      "Ġreleased": 2180,
      "ĠJan": 2181,
      "Ġinfl": 2182,
      "Ġseems": 2183,
      "Ġmeas": 2184,
      "pite": 2185,
      "Ġrelations": 2186,
      "ĠEd": 2187,
      "ĠGu": 2188,
      "Ġbegin": 2189,
      "Ġsound": 2190,
      "ĠWith": 2191,
      "ĠSouth": 2192,
      "ively": 2193,
      "ibility": 2194,
      "**": 2195,
      "head": 2196,
      "Ġlab": 2197,
      "eal": 2198,
      "Ġtarg": 2199,
      "iday": 2200,
      "Ġfig": 2201,
      "uation": 2202,
      "Ġrole": 2203,
      "ades": 2204,
      "Ġeverything": 2205,
      "Ġexec": 2206,
      "Ġinit": 2207,
      "Ġcompanies": 2208,
      "Ġcharacter": 2209,
      "ape": 2210,
      "Ġconv": 2211,
      "Ġwatch": 2212,
      "ĠWashington": 2213,
      "Ġcreate": 2214,
      "Ġhours": 2215,
      "Ġ2012": 2216,
      "Ġfire": 2217,
      "Ġbegan": 2218,
      "Ġ)": 2219,
      "Ġcountries": 2220,
      "ĠDav": 2221,
      "Ġbreak": 2222,
      "Ġcustom": 2223,
      "ĠHowever": 2224,
      "Ġstep": 2225,
      "Ch": 2226,
      "ivil": 2227,
      "ĠInst": 2228,
      "Ġopt": 2229,
      "ung": 2230,
      "Ġfield": 2231,
      "ana": 2232,
      "Ġtra": 2233,
      "Ġneg": 2234,
      "Ġsignificant": 2235,
      "IS": 2236,
      "Ġstatement": 2237,
      "aul": 2238,
      "Ġstudents": 2239,
      "Ġ25": 2240,
      "Ġposition": 2241,
      "ilt": 2242,
      "Ġhimself": 2243,
      "Ġfederal": 2244,
      "Ġ198": 2245,
      "'ll": 2246,
      "Ġdou": 2247,
      "Ġaddress": 2248,
      "aced": 2249,
      "Ġprovide": 2250,
      "Ġabove": 2251,
      "Ġmatter": 2252,
      "Ġ100": 2253,
      "AN": 2254,
      "Ġoutside": 2255,
      "Ġamount": 2256,
      "Ġdrug": 2257,
      "Ġrelease": 2258,
      "Ġcontinue": 2259,
      "Ġbecame": 2260,
      "Ġdi": 2261,
      "Ġoffice": 2262,
      "reg": 2263,
      "like": 2264,
      "ender": 2265,
      "angu": 2266,
      "Ġstri": 2267,
      "attle": 2268,
      "Ġgroups": 2269,
      "Ġself": 2270,
      "Ġthemselves": 2271,
      "Ġstat": 2272,
      "Ġagree": 2273,
      "Ġinterview": 2274,
      "ĠRes": 2275,
      "Ġtrue": 2276,
      "Ġground": 2277,
      "ĠBar": 2278,
      "anks": 2279,
      "Ġaction": 2280,
      "umb": 2281,
      "Ġevidence": 2282,
      "Ġitself": 2283,
      "Ġdevelopment": 2284,
      "Ġtreat": 2285,
      "Ġener": 2286,
      "ĠApp": 2287,
      "obal": 2288,
      "iod": 2289,
      "Ġwasn": 2290,
      "sec": 2291,
      "ĠAss": 2292,
      "iddle": 2293,
      "Ġwoman": 2294,
      "oid": 2295,
      "ournal": 2296,
      "arter": 2297,
      "ery": 2298,
      "Ġlarg": 2299,
      "ogn": 2300,
      "ograph": 2301,
      "Ġspecific": 2302,
      "BC": 2303,
      "Ġrespons": 2304,
      "acebook": 2305,
      "Ġprofess": 2306,
      "vironment": 2307,
      "Ġcop": 2308,
      "Ġgeneral": 2309,
      "ili": 2310,
      "ĠIntern": 2311,
      "lam": 2312,
      "Ġrepresent": 2313,
      "abl": 2314,
      "ĠPart": 2315,
      "ww": 2316,
      "Ġsimply": 2317,
      "eks": 2318,
      "right": 2319,
      "Ġpretty": 2320,
      "Ġdom": 2321,
      "Ġadministr": 2322,
      "Ġplaying": 2323,
      "Ġshows": 2324,
      "ream": 2325,
      "Ġmot": 2326,
      "ribut": 2327,
      "Ġcommon": 2328,
      "Ġversion": 2329,
      "Ġap": 2330,
      "Ġneeded": 2331,
      "Ġbuilding": 2332,
      "Ġlat": 2333,
      "Ġbar": 2334,
      "AR": 2335,
      "ask": 2336,
      "Ġalleg": 2337,
      "Ġdeep": 2338,
      "Ġball": 2339,
      "Ġplayed": 2340,
      "Ġexc": 2341,
      "Ġneeds": 2342,
      "Ġdifficult": 2343,
      "Ġrunning": 2344,
      "ĠHis": 2345,
      "light": 2346,
      "Ġinclude": 2347,
      "Ġrad": 2348,
      "Ġsense": 2349,
      "ift": 2350,
      "ĠMed": 2351,
      "ĠChina": 2352,
      "Ġcandid": 2353,
      "Ġdest": 2354,
      "Ġmusic": 2355,
      "ĠJust": 2356,
      "Ġlate": 2357,
      "isc": 2358,
      "Ġtyp": 2359,
      "Ġmag": 2360,
      "Ġphys": 2361,
      "Ġbelow": 2362,
      "14": 2363,
      "How": 2364,
      "ĠMus": 2365,
      "Ġsaw": 2366,
      "ogle": 2367,
      "atur": 2368,
      "Ġindustry": 2369,
      "Ġeveryone": 2370,
      "Ġtem": 2371,
      "ĠSyri": 2372,
      "ĠWhite": 2373,
      "Ġvote": 2374,
      "Ġbillion": 2375,
      "Ġelection": 2376,
      "ĠAb": 2377,
      "16": 2378,
      "Ġquite": 2379,
      "Ġlost": 2380,
      "Ġjud": 2381,
      "ĠNews": 2382,
      "ĠOct": 2383,
      "itte": 2384,
      "where": 2385,
      "arc": 2386,
      "Ġinj": 2387,
      "Ġcharg": 2388,
      "omm": 2389,
      "13": 2390,
      "urch": 2391,
      "bo": 2392,
      "Ġred": 2393,
      "Ġespecially": 2394,
      "ĠGerman": 2395,
      "ĠAfter": 2396,
      "ÂŃ": 2397,
      "Ġforward": 2398,
      "Ġhost": 2399,
      "Ġhom": 2400,
      "Ġweeks": 2401,
      "ager": 2402,
      "Ġanim": 2403,
      "Ġgun": 2404,
      "Ġenergy": 2405,
      "osing": 2406,
      "Ġwhite": 2407,
      "Ġfriends": 2408,
      "oe": 2409,
      "Ġrecently": 2410,
      "Ġabs": 2411,
      "oring": 2412,
      "ĠMarch": 2413,
      "ccording": 2414,
      "ĠWest": 2415,
      "Ġple": 2416,
      "Ġaccept": 2417,
      "Ġopportun": 2418,
      "Ġ50": 2419,
      "Ġlegal": 2420,
      "su": 2421,
      "25": 2422,
      "Ġtit": 2423,
      "17": 2424,
      "val": 2425,
      "Ġgen": 2426,
      "time": 2427,
      "Ġpain": 2428,
      "ival": 2429,
      "Ġperiod": 2430,
      "medi": 2431,
      "oke": 2432,
      "Ġsuff": 2433,
      "Ġdeter": 2434,
      "Ġlonger": 2435,
      "istic": 2436,
      "Ġonline": 2437,
      "Ġchanges": 2438,
      "Ġeconomic": 2439,
      "Ġrelig": 2440,
      "Ġlo": 2441,
      "Ġblock": 2442,
      "Ġservices": 2443,
      "ique": 2444,
      "Ġshoot": 2445,
      "Ġcontract": 2446,
      "Ġhope": 2447,
      "AS": 2448,
      "Ġsoon": 2449,
      "Ġtrack": 2450,
      "ĠNot": 2451,
      "Ġeduc": 2452,
      "Ġfocus": 2453,
      "epend": 2454,
      "Ġinstead": 2455,
      "itting": 2456,
      "oph": 2457,
      "Ġwrong": 2458,
      "lev": 2459,
      "ĠTwitter": 2460,
      "ached": 2461,
      "ĠGod": 2462,
      "Ġsite": 2463,
      "Ġep": 2464,
      "ĠCong": 2465,
      "ĠWill": 2466,
      "Ġpie": 2467,
      "onse": 2468,
      "Ġresults": 2469,
      "Ġheld": 2470,
      "lt": 2471,
      "18": 2472,
      "eed": 2473,
      "den": 2474,
      "Ġled": 2475,
      "ript": 2476,
      "Ġserious": 2477,
      "ĠRepublican": 2478,
      "Ġmoment": 2479,
      "Ġconsum": 2480,
      "key": 2481,
      "cil": 2482,
      "Ġobject": 2483,
      "Ġstay": 2484,
      "Ġcred": 2485,
      "Ġrisk": 2486,
      "Ġcirc": 2487,
      "irm": 2488,
      "Ġ24": 2489,
      "irt": 2490,
      "hod": 2491,
      "ĠSept": 2492,
      "yle": 2493,
      "Ġhigher": 2494,
      "ĠMy": 2495,
      "Ġpotential": 2496,
      "Ġage": 2497,
      "Ġdecl": 2498,
      "Ġsold": 2499,
      "ularly": 2500,
      "Ġpred": 2501,
      "Ġcheck": 2502,
      "Ġfavor": 2503,
      "ĠSm": 2504,
      "ĠAug": 2505,
      "Ġparent": 2506,
      "ĠDepartment": 2507,
      "che": 2508,
      "Ġupd": 2509,
      "iding": 2510,
      "overed": 2511,
      "Ġreve": 2512,
      "ners": 2513,
      "Ġshare": 2514,
      "Ġarticle": 2515,
      "ĠEn": 2516,
      "ĠJune": 2517,
      "fect": 2518,
      "uary": 2519,
      "Ġwords": 2520,
      "ilities": 2521,
      "ĠPe": 2522,
      "ĠThese": 2523,
      "Ġnecess": 2524,
      "ij": 2525,
      "Ġce": 2526,
      "cial": 2527,
      "Ġvalue": 2528,
      "str": 2529,
      "lege": 2530,
      "Ġlangu": 2531,
      "ĠMe": 2532,
      "duct": 2533,
      "Ġtotal": 2534,
      "ole": 2535,
      "Ġ2011": 2536,
      "ĠMich": 2537,
      "Ġworks": 2538,
      "apan": 2539,
      "They": 2540,
      "Ġdead": 2541,
      "aut": 2542,
      "icro": 2543,
      "asons": 2544,
      "action": 2545,
      "ĠDr": 2546,
      "Ġpersonal": 2547,
      "ĠJuly": 2548,
      "pril": 2549,
      "Ġwind": 2550,
      "Ġreview": 2551,
      "Ġstru": 2552,
      "ancial": 2553,
      "Ġwalk": 2554,
      "Ġgoal": 2555,
      "Ġansw": 2556,
      "Ġsurpr": 2557,
      "ham": 2558,
      "Ġtechnology": 2559,
      "ĠCount": 2560,
      "anger": 2561,
      "aging": 2562,
      "Ġhy": 2563,
      "Ġearlier": 2564,
      "Ġpopular": 2565,
      "bit": 2566,
      "Ġexpress": 2567,
      "ĠSte": 2568,
      "Ġprim": 2569,
      "ateg": 2570,
      "ients": 2571,
      "fer": 2572,
      "put": 2573,
      "Ġannounced": 2574,
      "haps": 2575,
      "Ġ{": 2576,
      "eter": 2577,
      "Ġstaff": 2578,
      "Ġshot": 2579,
      "ĠMond": 2580,
      "Ġanyone": 2581,
      "Ġreceived": 2582,
      "Ġwebs": 2583,
      "Ġminutes": 2584,
      "Ġden": 2585,
      "ĠPar": 2586,
      "itution": 2587,
      "Ġrespect": 2588,
      "ĠRed": 2589,
      "mp": 2590,
      "Ġexpected": 2591,
      "ends": 2592,
      "ude": 2593,
      "hern": 2594,
      "ule": 2595,
      "reet": 2596,
      "Ġrate": 2597,
      "Ġvol": 2598,
      "Ġanti": 2599,
      "Ġways": 2600,
      "Ph": 2601,
      "ES": 2602,
      "Ġrev": 2603,
      "Ġaud": 2604,
      "Ġcomment": 2605,
      "lex": 2606,
      "isl": 2607,
      "Ġsen": 2608,
      "ĠCongress": 2609,
      "ĠRussia": 2610,
      "aving": 2611,
      "ples": 2612,
      "cle": 2613,
      "Ġtal": 2614,
      "Ġphot": 2615,
      "Ġpack": 2616,
      "Ġscient": 2617,
      "Ġsubject": 2618,
      "Ġeasy": 2619,
      "Ġquestions": 2620,
      "Ġproblems": 2621,
      "omb": 2622,
      "Ġinvolved": 2623,
      "Al": 2624,
      "Ġcreated": 2625,
      "atives": 2626,
      "Ġbase": 2627,
      "ĠDo": 2628,
      "iple": 2629,
      "ittee": 2630,
      "hood": 2631,
      "ĠAustral": 2632,
      "Ġenvironment": 2633,
      "ills": 2634,
      "ĠFacebook": 2635,
      "Ġforce": 2636,
      "Ġdiv": 2637,
      "Ġprivate": 2638,
      "Ġterror": 2639,
      "okes": 2640,
      "Ġcannot": 2641,
      "Ġ197": 2642,
      "Ġimpact": 2643,
      "Ġfans": 2644,
      "60": 2645,
      "Ġincrease": 2646,
      "Ġport": 2647,
      "lin": 2648,
      "Ġexecut": 2649,
      "ires": 2650,
      "iter": 2651,
      "Ġclub": 2652,
      "ĠPal": 2653,
      "Ġnearly": 2654,
      "lled": 2655,
      "Ġcode": 2656,
      "Ġtarget": 2657,
      "Ġmater": 2658,
      "ĠMonday": 2659,
      "Ġleave": 2660,
      "Ġresponse": 2661,
      "Ġapplic": 2662,
      "uel": 2663,
      "Ġfunction": 2664,
      "Ġcivil": 2665,
      "ĠApril": 2666,
      "Ġcomput": 2667,
      "ĠAct": 2668,
      "ellig": 2669,
      "Ġreports": 2670,
      "rem": 2671,
      "Ġcapt": 2672,
      "Ġexact": 2673,
      "Ġbroad": 2674,
      "aker": 2675,
      "ze": 2676,
      "Ġkilled": 2677,
      "na": 2678,
      "Ġrelationship": 2679,
      "Ġcases": 2680,
      "Ġdirector": 2681,
      "Ġinternational": 2682,
      "Ġet": 2683,
      "org": 2684,
      "ĠFriday": 2685,
      "Ġadm": 2686,
      "Ġoil": 2687,
      "At": 2688,
      "vertise": 2689,
      "ging": 2690,
      "To": 2691,
      "Ġmother": 2692,
      "Ġworked": 2693,
      "Ġdecided": 2694,
      "ourt": 2695,
      "Ġheart": 2696,
      "uesday": 2697,
      "Ġchance": 2698,
      "Ġaverage": 2699,
      "ray": 2700,
      "Ġinside": 2701,
      "Ġrespond": 2702,
      "Ġrequest": 2703,
      "Ġsoft": 2704,
      "Ġbecom": 2705,
      "ĠGoogle": 2706,
      "Ġworth": 2707,
      "ĠJapan": 2708,
      "Ġroad": 2709,
      "ees": 2710,
      "Ġoffer": 2711,
      "Ġprice": 2712,
      "rought": 2713,
      "itiz": 2714,
      "Ġcoll": 2715,
      "\".": 2716,
      "Ġmid": 2717,
      "Ġphone": 2718,
      "Ġoriginal": 2719,
      "Ġbuy": 2720,
      "Ġdel": 2721,
      "Ġestabl": 2722,
      "Ġliving": 2723,
      "Ġgave": 2724,
      "Ġfem": 2725,
      "cast": 2726,
      "Ġusers": 2727,
      "ips": 2728,
      "rel": 2729,
      "Ġability": 2730,
      "Ġstore": 2731,
      "Ġimmedi": 2732,
      "body": 2733,
      "unt": 2734,
      "Ġpublished": 2735,
      "ological": 2736,
      "Ġcontent": 2737,
      "Ġnation": 2738,
      "Ġlack": 2739,
      "Ġmodel": 2740,
      "Ġ2010": 2741,
      "Ġassoci": 2742,
      "Ġsqu": 2743,
      "osition": 2744,
      "atural": 2745,
      "Ġgirl": 2746,
      "ino": 2747,
      "Ġinflu": 2748,
      "Ġterms": 2749,
      "Ġarrest": 2750,
      "ĠCalif": 2751,
      "Ġcal": 2752,
      "ops": 2753,
      "Ġhappened": 2754,
      "ãģ": 2755,
      "ctor": 2756,
      "ese": 2757,
      "Ġdefin": 2758,
      "Ġglobal": 2759,
      "ĠWhile": 2760,
      "OR": 2761,
      "ky": 2762,
      "Ġforeign": 2763,
      "ĠPer": 2764,
      "hel": 2765,
      "Ġsource": 2766,
      "joy": 2767,
      "ites": 2768,
      "ovember": 2769,
      "Ġwhose": 2770,
      "ĠTuesday": 2771,
      "Ġmember": 2772,
      "ĠSome": 2773,
      "ises": 2774,
      "EN": 2775,
      "ael": 2776,
      "istrict": 2777,
      "Ġemer": 2778,
      "Ġweap": 2779,
      "ighb": 2780,
      "Ġworkers": 2781,
      "Ġaffect": 2782,
      "ĠSan": 2783,
      "ĠNe": 2784,
      "Ġrequire": 2785,
      "izing": 2786,
      "ĠWed": 2787,
      "Ġcurrently": 2788,
      "Ġmeeting": 2789,
      "bl": 2790,
      "clus": 2791,
      "Ġtype": 2792,
      "Ġur": 2793,
      "Ġlog": 2794,
      "Ġtakes": 2795,
      "Ġcollect": 2796,
      "Ġplans": 2797,
      "Ġcareer": 2798,
      "Ġgoes": 2799,
      "Ġevents": 2800,
      "ĠJanuary": 2801,
      "200": 2802,
      "Ġtrade": 2803,
      "ought": 2804,
      "ĠFeb": 2805,
      "Ġ<": 2806,
      "....": 2807,
      "Ġfre": 2808,
      "ĠGl": 2809,
      "Ġteams": 2810,
      "oved": 2811,
      "Ġfinancial": 2812,
      "ĠIslam": 2813,
      "ĠAmericans": 2814,
      "Ġrecogn": 2815,
      "rown": 2816,
      "40": 2817,
      "Ġcapital": 2818,
      "Ġregard": 2819,
      "fully": 2820,
      "Ġhuge": 2821,
      "Ġbur": 2822,
      "Ġcell": 2823,
      "rain": 2824,
      "Ġobs": 2825,
      "Ġdeli": 2826,
      "Ġlives": 2827,
      "Ġturned": 2828,
      "icated": 2829,
      "Ġsituation": 2830,
      "Ġintrodu": 2831,
      "Ġmatch": 2832,
      "Ġparticip": 2833,
      "ĠDavid": 2834,
      "Ġround": 2835,
      "ĠSch": 2836,
      "nesday": 2837,
      "rect": 2838,
      "Ġtou": 2839,
      "ĠCor": 2840,
      "ĠSund": 2841,
      "Ġcouple": 2842,
      "Ġ@": 2843,
      "ĠBy": 2844,
      "ursday": 2845,
      "Ġsimple": 2846,
      "Ġadministration": 2847,
      "?âĢĿ": 2848,
      "Ġpict": 2849,
      "Ġapproach": 2850,
      "iction": 2851,
      "ĠNow": 2852,
      "ett": 2853,
      "ĠSeptember": 2854,
      "One": 2855,
      "ani": 2856,
      "based": 2857,
      "ha": 2858,
      "ĠOctober": 2859,
      "Ġnumbers": 2860,
      "Ġste": 2861,
      "Ġmaterial": 2862,
      "Ġimprove": 2863,
      "Ġarri": 2864,
      "Ġcy": 2865,
      "ĠTV": 2866,
      "Ġrace": 2867,
      "Ġ21": 2868,
      "Ġboard": 2869,
      "oor": 2870,
      "Ġboy": 2871,
      "ĠOff": 2872,
      "orters": 2873,
      "Ġquickly": 2874,
      "Ġ40": 2875,
      "][": 2876,
      "ĠEuropean": 2877,
      "Ġhon": 2878,
      "ĠAugust": 2879,
      "ĠHill": 2880,
      "ornia": 2881,
      "Ġemail": 2882,
      "estern": 2883,
      "\",": 2884,
      "Ġtext": 2885,
      "Ġproduction": 2886,
      "ruction": 2887,
      "Ġsecret": 2888,
      "ĠNovember": 2889,
      "Ġnetwork": 2890,
      "ĠAfric": 2891,
      "ĠCanada": 2892,
      "avy": 2893,
      "Ġareas": 2894,
      "Ġhttp": 2895,
      "Ġloss": 2896,
      "ech": 2897,
      "Ġtool": 2898,
      "ĠAg": 2899,
      "Ġperformance": 2900,
      "ned": 2901,
      "iment": 2902,
      "aur": 2903,
      "Ġfelt": 2904,
      "Ġpers": 2905,
      "Ġheard": 2906,
      "Ġmis": 2907,
      "Ġill": 2908,
      "Ġspent": 2909,
      "ĠWednesday": 2910,
      "ĠAng": 2911,
      "Ġmethod": 2912,
      "ession": 2913,
      "chie": 2914,
      "Ġpage": 2915,
      "Ġpull": 2916,
      "aily": 2917,
      "ĠPaul": 2918,
      "ĠThursday": 2919,
      "Ġfather": 2920,
      "load": 2921,
      "Ġallowed": 2922,
      "ĠUK": 2923,
      "ille": 2924,
      "AL": 2925,
      "Ġdig": 2926,
      "order": 2927,
      "ĠRussian": 2928,
      "ĠCounty": 2929,
      "Ġneighb": 2930,
      "Ġwants": 2931,
      "Ġbuilt": 2932,
      "apt": 2933,
      "ety": 2934,
      "atory": 2935,
      "Ġpoll": 2936,
      "Ġvia": 2937,
      "mon": 2938,
      "âĢĿ.": 2939,
      "aled": 2940,
      "Ġthous": 2941,
      "Ġord": 2942,
      "Ġlegisl": 2943,
      "Ġ22": 2944,
      "ĠEl": 2945,
      "uses": 2946,
      "Ġlower": 2947,
      "ume": 2948,
      "Ġengine": 2949,
      "Ġforces": 2950,
      "Ġnorm": 2951,
      "Ġeconomy": 2952,
      "ights": 2953,
      "ructure": 2954,
      "Ġknew": 2955,
      "Ġbank": 2956,
      "Ġtravel": 2957,
      "ĠBlack": 2958,
      "gest": 2959,
      "ences": 2960,
      "Ġ}": 2961,
      "Ġincluded": 2962,
      "Ġhands": 2963,
      "Ġbud": 2964,
      "urd": 2965,
      "Ġcause": 2966,
      "Ġwide": 2967,
      "Ġ...": 2968,
      "Ġrepe": 2969,
      "With": 2970,
      "Ġperfect": 2971,
      "Ġcover": 2972,
      "ceed": 2973,
      "ishing": 2974,
      "Ġvictim": 2975,
      "Ġliber": 2976,
      "Ġsong": 2977,
      "Ġvisit": 2978,
      "akers": 2979,
      "Ġvarious": 2980,
      "Ġgets": 2981,
      "Ġenjoy": 2982,
      "cember": 2983,
      "ĠCourt": 2984,
      "Ġvo": 2985,
      "Ġtried": 2986,
      "ĠCalifornia": 2987,
      "agement": 2988,
      "Ġwebsite": 2989,
      "'d": 2990,
      "alled": 2991,
      "Ġprep": 2992,
      "ĠSunday": 2993,
      "Ġattention": 2994,
      "Ġbehav": 2995,
      "Ġ+": 2996,
      "Ġbi": 2997,
      "Ġmorning": 2998,
      "oud": 2999,
      "ĠKe": 3000,
      "After": 3001,
      "Ġbrought": 3002,
      "arily": 3003,
      "raz": 3004,
      "ledge": 3005,
      "ĠBritish": 3006,
      "uk": 3007,
      "ened": 3008,
      "Ġtown": 3009,
      "ĠHer": 3010,
      "down": 3011,
      "oo": 3012,
      "Ġ23": 3013,
      "Ġfell": 3014,
      "Sh": 3015,
      "Ġsepar": 3016,
      "alt": 3017,
      "ĠPost": 3018,
      "ibly": 3019,
      "face": 3020,
      "field": 3021,
      "idered": 3022,
      "force": 3023,
      "ĠIndia": 3024,
      "ĠTimes": 3025,
      "Ġlooks": 3026,
      "illed": 3027,
      "Ġmention": 3028,
      "ĠCont": 3029,
      "Ġmovement": 3030,
      "Ġreach": 3031,
      "Ġleader": 3032,
      "Ġrules": 3033,
      "Ġfair": 3034,
      "ĠKore": 3035,
      "come": 3036,
      "While": 3037,
      "yond": 3038,
      "ctions": 3039,
      "Ġtraining": 3040,
      "ĠQu": 3041,
      "Ġfear": 3042,
      "Ġlink": 3043,
      "sequ": 3044,
      "Ġparticular": 3045,
      "Ġhot": 3046,
      "iam": 3047,
      "ĠSw": 3048,
      "Ġrac": 3049,
      "hold": 3050,
      "undred": 3051,
      "ĠJew": 3052,
      "ĠRom": 3053,
      "ification": 3054,
      "Ġlanguage": 3055,
      "cies": 3056,
      "elligence": 3057,
      "ening": 3058,
      "Re": 3059,
      "Ġprogress": 3060,
      "Ġcontact": 3061,
      "ĠIran": 3062,
      "Ġess": 3063,
      "ecause": 3064,
      "Ġupon": 3065,
      "ĠPat": 3066,
      "ĠStreet": 3067,
      "Ġhor": 3068,
      "omp": 3069,
      "ĠIS": 3070,
      "ma": 3071,
      "AC": 3072,
      "Ġdemand": 3073,
      "Ġson": 3074,
      "imin": 3075,
      "Ġindepend": 3076,
      "ĠDecember": 3077,
      "Ġreb": 3078,
      "22": 3079,
      "sych": 3080,
      "Ġens": 3081,
      "ope": 3082,
      "idents": 3083,
      "Ġgrowth": 3084,
      "ĠMuslim": 3085,
      "Ġaddition": 3086,
      "Ġpopulation": 3087,
      "arth": 3088,
      "unk": 3089,
      "iant": 3090,
      "Ġlatest": 3091,
      "aries": 3092,
      "uments": 3093,
      "inks": 3094,
      "Ġimage": 3095,
      "vertisement": 3096,
      "Ġconserv": 3097,
      "Ġsearch": 3098,
      "Ġsize": 3099,
      "Ġtalking": 3100,
      "Ġstar": 3101,
      "Ġwond": 3102,
      "lear": 3103,
      "Ġ2008": 3104,
      "Ġcoach": 3105,
      "bed": 3106,
      "Ġdemon": 3107,
      "ED": 3108,
      "ĠSenate": 3109,
      "ysis": 3110,
      "Ġsett": 3111,
      "ĠTex": 3112,
      "99": 3113,
      "ĠKing": 3114,
      "Ġconsidered": 3115,
      "Ġsexual": 3116,
      "Ġinn": 3117,
      "Ġseek": 3118,
      "Ġcritic": 3119,
      "imately": 3120,
      "Ġfast": 3121,
      "Ġstrugg": 3122,
      "Ġjobs": 3123,
      "Ġfeatures": 3124,
      "Ġpaper": 3125,
      "icles": 3126,
      "ospital": 3127,
      "Ġspeed": 3128,
      "Ġveh": 3129,
      "Ġjournal": 3130,
      "Ġachie": 3131,
      "Ġinvestigation": 3132,
      "Ġsort": 3133,
      "atter": 3134,
      "ĠPark": 3135,
      "Ġsens": 3136,
      "Ġmedical": 3137,
      "Ġsn": 3138,
      "wo": 3139,
      "ĠEast": 3140,
      "het": 3141,
      "ground": 3142,
      "Ġhear": 3143,
      "Ġslow": 3144,
      "ruary": 3145,
      "Ġprior": 3146,
      "Ġseven": 3147,
      "ibr": 3148,
      "ondon": 3149,
      "eth": 3150,
      "Ġregul": 3151,
      "itch": 3152,
      "aph": 3153,
      "US": 3154,
      "aturday": 3155,
      "eared": 3156,
      "Ġincreasing": 3157,
      "Ġeffort": 3158,
      "Ġconduct": 3159,
      "pper": 3160,
      "asc": 3161,
      "Ġspokes": 3162,
      "80": 3163,
      "tr": 3164,
      "Ġ2009": 3165,
      "raq": 3166,
      "Ġcard": 3167,
      "Ġdocument": 3168,
      "ps": 3169,
      "Ġbox": 3170,
      "ining": 3171,
      "fl": 3172,
      "istan": 3173,
      "ux": 3174,
      "aves": 3175,
      "Ġopportunity": 3176,
      "IT": 3177,
      "Tr": 3178,
      "Ġeight": 3179,
      "Ġpaid": 3180,
      "Ġclimate": 3181,
      "Ġparents": 3182,
      "de": 3183,
      "Ġcitiz": 3184,
      "Ġsystems": 3185,
      "ĠCenter": 3186,
      "ĠParty": 3187,
      "Ġund": 3188,
      "ges": 3189,
      "coin": 3190,
      "Ġdoll": 3191,
      "She": 3192,
      "Ġdraw": 3193,
      "Ġextreme": 3194,
      "ication": 3195,
      "Ġprevent": 3196,
      "24": 3197,
      "Ġdog": 3198,
      "eff": 3199,
      "Ġconc": 3200,
      "ĠÐ": 3201,
      "Ġwritten": 3202,
      "Ġmajority": 3203,
      "Ġbott": 3204,
      "Ġinteresting": 3205,
      "OS": 3206,
      "Ġexam": 3207,
      "Ġmach": 3208,
      "Ġattacks": 3209,
      "Ġmessage": 3210,
      "Ġprotest": 3211,
      "pir": 3212,
      "Ġlevels": 3213,
      "oses": 3214,
      "Ġanswer": 3215,
      "Ġobvious": 3216,
      "ĠMark": 3217,
      "Ġsurve": 3218,
      "Ġdoub": 3219,
      "Ġcompletely": 3220,
      "Ġresour": 3221,
      "Ġbiggest": 3222,
      "Ġguy": 3223,
      "Ġmodern": 3224,
      "ĠSand": 3225,
      "Ġrequired": 3226,
      "ĠTur": 3227,
      "Ġsafe": 3228,
      "entially": 3229,
      "Ġpen": 3230,
      "Ġimmigr": 3231,
      "ĠMore": 3232,
      "Ġcertainly": 3233,
      "reedom": 3234,
      "room": 3235,
      "Ġrange": 3236,
      "Ġparticularly": 3237,
      ");": 3238,
      "abor": 3239,
      "Ġviolence": 3240,
      "idge": 3241,
      "Ġaren": 3242,
      "ĠMcC": 3243,
      "Ġdespite": 3244,
      "Ġexperien": 3245,
      "Ġsometimes": 3246,
      "ĠDonald": 3247,
      "Ġdefense": 3248,
      "uf": 3249,
      "iers": 3250,
      "ida": 3251,
      "Ġcarry": 3252,
      "ĠChar": 3253,
      "Ġprovided": 3254,
      "Ġsociety": 3255,
      "erve": 3256,
      "ously": 3257,
      "set": 3258,
      "ĠFebruary": 3259,
      "ĠSpe": 3260,
      "Ġhundred": 3261,
      "orge": 3262,
      "Ġproducts": 3263,
      "ension": 3264,
      "Ġvoters": 3265,
      "Ġcross": 3266,
      "rench": 3267,
      "icks": 3268,
      "ĠChe": 3269,
      "Ġregion": 3270,
      "Ġexcept": 3271,
      "Ġdro": 3272,
      "rast": 3273,
      "Ġaw": 3274,
      "ĠIraq": 3275,
      "Ġclaims": 3276,
      "Ġofficers": 3277,
      "oper": 3278,
      "Ġshowed": 3279,
      "Ġdamage": 3280,
      "Ġpan": 3281,
      "erc": 3282,
      "nces": 3283,
      "Ġconvers": 3284,
      "Ġquarter": 3285,
      "ico": 3286,
      "inally": 3287,
      "Ġstuff": 3288,
      "inese": 3289,
      "Ġmovie": 3290,
      "aming": 3291,
      "Ġexactly": 3292,
      "Ġcontinued": 3293,
      "Ġfinally": 3294,
      "Ġnatural": 3295,
      "arr": 3296,
      "Ġpractice": 3297,
      "hib": 3298,
      "Ġeducation": 3299,
      "Ġoccur": 3300,
      "obile": 3301,
      "atform": 3302,
      "OP": 3303,
      "Ġmiddle": 3304,
      "Ġleading": 3305,
      "ext": 3306,
      "ĠCoun": 3307,
      "Ġitem": 3308,
      "Ġchanged": 3309,
      "Ġ27": 3310,
      "isions": 3311,
      "Ġfix": 3312,
      "ĠEm": 3313,
      "Ġscreen": 3314,
      "Ġchief": 3315,
      "ny": 3316,
      "Ġhistor": 3317,
      "ĠSaturday": 3318,
      "Ġtable": 3319,
      "aught": 3320,
      "Ġmaintain": 3321,
      "Ġterm": 3322,
      "Ġlooked": 3323,
      "utions": 3324,
      "Ġremains": 3325,
      "Ġnamed": 3326,
      "ari": 3327,
      "Ġdied": 3328,
      "Ġremain": 3329,
      "anced": 3330,
      "mit": 3331,
      "Ġcosts": 3332,
      "Ġextra": 3333,
      "Ġimag": 3334,
      "Ġassist": 3335,
      "Ġstories": 3336,
      "Ġsummer": 3337,
      "ĠLondon": 3338,
      "Ġdetails": 3339,
      "Ġones": 3340,
      "Ġpurp": 3341,
      "Ġgas": 3342,
      "Ġpoor": 3343,
      "men": 3344,
      "Ġquality": 3345,
      "ago": 3346,
      "Ġdescribed": 3347,
      "23": 3348,
      "Ġpurch": 3349,
      "Ġblood": 3350,
      "lying": 3351,
      "Ġpath": 3352,
      "uclear": 3353,
      "Ġspeak": 3354,
      "ĠSer": 3355,
      "ĠMon": 3356,
      "Ġrout": 3357,
      "Ġparts": 3358,
      "Ġult": 3359,
      "Ġstarting": 3360,
      "Ġ26": 3361,
      "Ġwouldn": 3362,
      "Ġincreased": 3363,
      "Ġgiving": 3364,
      "Ġcomments": 3365,
      "eneral": 3366,
      "ĠSoc": 3367,
      "enge": 3368,
      "IC": 3369,
      "ĠEven": 3370,
      "Ġprison": 3371,
      "ĠInt": 3372,
      "Ġsurv": 3373,
      "?\"": 3374,
      "Ġreading": 3375,
      "Ġscience": 3376,
      "Ġrob": 3377,
      "ression": 3378,
      "Ġ28": 3379,
      "ĠSyria": 3380,
      "ĠNet": 3381,
      "ĠMor": 3382,
      "fort": 3383,
      "Ġefforts": 3384,
      "Ġmultiple": 3385,
      "urt": 3386,
      "No": 3387,
      "Ġgrowing": 3388,
      "Im": 3389,
      "ĠCons": 3390,
      "Ġdanger": 3391,
      "Ġearn": 3392,
      "Ġlay": 3393,
      "inary": 3394,
      "lish": 3395,
      "Ġusually": 3396,
      "Ġready": 3397,
      "Ġwriting": 3398,
      "Ġwrite": 3399,
      "ĠDemocratic": 3400,
      "Ġreality": 3401,
      "Ġment": 3402,
      "Ġculture": 3403,
      "Ġsle": 3404,
      "ara": 3405,
      "ĠTexas": 3406,
      "Ġkids": 3407,
      "rowd": 3408,
      "ications": 3409,
      "Ġspot": 3410,
      "ĠFirst": 3411,
      "ĠRepublicans": 3412,
      "Ġunf": 3413,
      "Ġthinking": 3414,
      "Ġsubst": 3415,
      "aly": 3416,
      "Ġthroughout": 3417,
      "Ġalthough": 3418,
      "itute": 3419,
      "Ġcamer": 3420,
      "ĠDes": 3421,
      "Ġcalls": 3422,
      "Ġimplement": 3423,
      "ford": 3424,
      "Ġwife": 3425,
      "Ġselect": 3426,
      "ĠIndian": 3427,
      "Ġconsist": 3428,
      "Ġtowards": 3429,
      "Ġuser": 3430,
      "amb": 3431,
      "Ġbeyond": 3432,
      "iminal": 3433,
      "Ġguys": 3434,
      "Ġmill": 3435,
      "Ġresearc": 3436,
      "oul": 3437,
      "egr": 3438,
      "Ġcele": 3439,
      "anch": 3440,
      "ĠBill": 3441,
      "Ġsell": 3442,
      "Ġavoid": 3443,
      "Ġcenter": 3444,
      "Ġlaws": 3445,
      "ĠLeague": 3446,
      "Ġperhaps": 3447,
      "Ġcouldn": 3448,
      "Ġban": 3449,
      "Ġeffects": 3450,
      "arian": 3451,
      "Ġstudent": 3452,
      "omen": 3453,
      "icted": 3454,
      "ables": 3455,
      "Ġfootball": 3456,
      "==": 3457,
      "Ġstandard": 3458,
      "wise": 3459,
      "Ġut": 3460,
      "Ġcorpor": 3461,
      "Ġconcept": 3462,
      "Ġcast": 3463,
      "Ġagency": 3464,
      "Ġ*": 3465,
      "Ġdirectly": 3466,
      "Ġchoice": 3467,
      "ban": 3468,
      "Ġspeech": 3469,
      "ĠJames": 3470,
      "Ġremember": 3471,
      "Ġpiece": 3472,
      "using": 3473,
      "zz": 3474,
      "ĠServ": 3475,
      "Ġalone": 3476,
      "ales": 3477,
      "FL": 3478,
      "Ġil": 3479,
      "Ġstage": 3480,
      "Ġchalleng": 3481,
      "ĠChinese": 3482,
      "yl": 3483,
      "Ġrecomm": 3484,
      "iles": 3485,
      "Ġreceive": 3486,
      "Ġalleged": 3487,
      "sp": 3488,
      "ampions": 3489,
      "ĠMichael": 3490,
      "Ġgone": 3491,
      "oes": 3492,
      "itation": 3493,
      "ĠJack": 3494,
      "ĠVal": 3495,
      "Ġpressure": 3496,
      "Ġscene": 3497,
      "Ġtro": 3498,
      "AM": 3499,
      "Ġtoward": 3500,
      "astic": 3501,
      "hest": 3502,
      "Ġahead": 3503,
      "ston": 3504,
      "ĠMinister": 3505,
      "Ġ(@": 3506,
      "Ġclos": 3507,
      "Ġepis": 3508,
      "Ġdate": 3509,
      "ĠRich": 3510,
      "airs": 3511,
      "________": 3512,
      "berg": 3513,
      "Ġcounter": 3514,
      "Ġimmediately": 3515,
      "Ġofficer": 3516,
      "Now": 3517,
      "OT": 3518,
      "Ġopin": 3519,
      "Ġincludes": 3520,
      "Ġten": 3521,
      "ports": 3522,
      "Ġswe": 3523,
      "irth": 3524,
      "Ġadditional": 3525,
      "Ġoption": 3526,
      "Ġcomplex": 3527,
      "Ġleague": 3528,
      "icient": 3529,
      "Ġâ": 3530,
      "Ġsil": 3531,
      "Ġcentury": 3532,
      "Ġdesigned": 3533,
      "Ġtour": 3534,
      "olute": 3535,
      "adem": 3536,
      "All": 3537,
      "Ġsafety": 3538,
      "Ġfile": 3539,
      "ĠStar": 3540,
      "100": 3541,
      "Ġconditions": 3542,
      "atever": 3543,
      "Ġdisapp": 3544,
      "Advertisement": 3545,
      "Ġhous": 3546,
      "Ġtitle": 3547,
      "35": 3548,
      "Ġconference": 3549,
      "Ġthousands": 3550,
      "Ġtwe": 3551,
      "Ġrelative": 3552,
      "Ġver": 3553,
      "Ġblog": 3554,
      "Ġsat": 3555,
      "imum": 3556,
      "Ġmoving": 3557,
      "Ġlaunch": 3558,
      "BI": 3559,
      "Ġproperty": 3560,
      "Ġband": 3561,
      "roy": 3562,
      "ĠRober": 3563,
      "rupt": 3564,
      "Ġmoved": 3565,
      "Ġhelped": 3566,
      "Ġplatform": 3567,
      "Ġmyself": 3568,
      "ĠBo": 3569,
      "Ġletter": 3570,
      "Ġbudget": 3571,
      "Ġ60": 3572,
      "ĠGreen": 3573,
      "yan": 3574,
      "Ġeyes": 3575,
      "Ġmeaning": 3576,
      "aches": 3577,
      "Ġprec": 3578,
      "lease": 3579,
      "Ġsoftware": 3580,
      "urning": 3581,
      "Ġcris": 3582,
      "Ġcontribut": 3583,
      "Ġorganization": 3584,
      "Ġsuspect": 3585,
      "Ġappears": 3586,
      "Ġreligious": 3587,
      "Ġreasons": 3588,
      "Ġencour": 3589,
      "Ġshown": 3590,
      "Ġmeant": 3591,
      "Ġnom": 3592,
      "Ġpassed": 3593,
      "Ġscore": 3594,
      "Ġpresidential": 3595,
      "Ġdebate": 3596,
      "ĠDemocrats": 3597,
      "--------": 3598,
      "ĠMart": 3599,
      "Ġcopy": 3600,
      "Ġfigure": 3601,
      "Ġfan": 3602,
      "ĠAssoci": 3603,
      "Ġnature": 3604,
      "Ġbooks": 3605,
      "Ġfailed": 3606,
      "Ġbeginning": 3607,
      "more": 3608,
      "itness": 3609,
      "ĠâĢ¦": 3610,
      "Ġdrive": 3611,
      "bum": 3612,
      "Ġhappy": 3613,
      "LL": 3614,
      "Ġrock": 3615,
      "Ġnecessary": 3616,
      "ĠLa": 3617,
      "aughter": 3618,
      "Ġlimited": 3619,
      "Ġrefer": 3620,
      "Ġ196": 3621,
      "Ġdark": 3622,
      "Ġcandidate": 3623,
      "ET": 3624,
      "Ġsche": 3625,
      "Ġdeg": 3626,
      "itor": 3627,
      "chan": 3628,
      "Ġclean": 3629,
      "Ġcommand": 3630,
      "Ġdevice": 3631,
      "Ġdise": 3632,
      "ĠThen": 3633,
      "Ġanalysis": 3634,
      "Ġdemonstr": 3635,
      "Ġspending": 3636,
      "ĠDay": 3637,
      "ĠPlay": 3638,
      "orks": 3639,
      "ilies": 3640,
      "Ġdifference": 3641,
      "wood": 3642,
      "Ġbattle": 3643,
      "Ġpark": 3644,
      "Ġbrain": 3645,
      "ĠII": 3646,
      "Ġcompared": 3647,
      "Ġyes": 3648,
      "new": 3649,
      "just": 3650,
      "Ġdisp": 3651,
      "Ġestim": 3652,
      "add": 3653,
      "aint": 3654,
      "ustr": 3655,
      "Ġfa": 3656,
      "Ġcrowd": 3657,
      "Ġbal": 3658,
      "Ġschools": 3659,
      "Ġforced": 3660,
      "agon": 3661,
      "Ġmaybe": 3662,
      "rief": 3663,
      "ĠSmith": 3664,
      "26": 3665,
      "ocked": 3666,
      "ressed": 3667,
      "Ġstra": 3668,
      "27": 3669,
      "ivity": 3670,
      "band": 3671,
      "ĠOf": 3672,
      "45": 3673,
      "ero": 3674,
      "Ġconfir": 3675,
      "ĠApple": 3676,
      "Ġthrow": 3677,
      "Ġlargest": 3678,
      "Ġsenior": 3679,
      "Ġign": 3680,
      "pre": 3681,
      "Ġaim": 3682,
      "Ġfrequ": 3683,
      "Don": 3684,
      "Ġpowerful": 3685,
      "ĠSuper": 3686,
      "Ġcat": 3687,
      "Ġpositive": 3688,
      "Ġwall": 3689,
      "Ġfollowed": 3690,
      "Ġtrust": 3691,
      "Ġarch": 3692,
      "enty": 3693,
      "Is": 3694,
      "Ġcharacters": 3695,
      "Ġcollege": 3696,
      "Ġeventually": 3697,
      "ĠDis": 3698,
      "erry": 3699,
      "Ġoverall": 3700,
      "ĠEU": 3701,
      "Ġdecades": 3702,
      "ĠTor": 3703,
      "Ġnuclear": 3704,
      "ĠFrench": 3705,
      "Ġanaly": 3706,
      "AD": 3707,
      "Ġcorrect": 3708,
      "Ġphysical": 3709,
      "Ġgrad": 3710,
      "OM": 3711,
      "Ġstreng": 3712,
      "Be": 3713,
      "Ġexecutive": 3714,
      "Ġtruth": 3715,
      "Ġcentral": 3716,
      "oti": 3717,
      "ĠBen": 3718,
      "Ġsusp": 3719,
      "Ġdraft": 3720,
      "AP": 3721,
      "Ġtouch": 3722,
      "ĠArab": 3723,
      "Ġcelebr": 3724,
      "ĠGovern": 3725,
      "Ġeasily": 3726,
      "Ġsales": 3727,
      "My": 3728,
      "Ġappeared": 3729,
      "Ġarm": 3730,
      "Ġactions": 3731,
      "Ġautom": 3732,
      "ĠHere": 3733,
      "Ġcool": 3734,
      "iring": 3735,
      "Ġunique": 3736,
      "Ġpus": 3737,
      "Ġesc": 3738,
      "Ġ;": 3739,
      "Ġaware": 3740,
      "ville": 3741,
      "riage": 3742,
      "Ġfeature": 3743,
      "Ġfirm": 3744,
      "ĠLake": 3745,
      "Ġfavorite": 3746,
      "etro": 3747,
      "ĠSim": 3748,
      "cient": 3749,
      "Ġdeveloped": 3750,
      "ĠEnglish": 3751,
      "Ġmix": 3752,
      "Ġcitizens": 3753,
      "Ġnice": 3754,
      "orney": 3755,
      "Ġyourself": 3756,
      "Ġcomputer": 3757,
      "Ġintelligence": 3758,
      "venue": 3759,
      "IA": 3760,
      "encies": 3761,
      "Ġpsych": 3762,
      "Ġdoor": 3763,
      "ĠTH": 3764,
      "Ġsigned": 3765,
      "Ġilleg": 3766,
      "Ġ29": 3767,
      "board": 3768,
      "According": 3769,
      "Ġang": 3770,
      "inn": 3771,
      "ufact": 3772,
      "Ġdrop": 3773,
      "Ġpolitics": 3774,
      "Ġlic": 3775,
      "ĠAM": 3776,
      "New": 3777,
      "Ġpromot": 3778,
      "bur": 3779,
      "ĠAustralia": 3780,
      "Ġconflic": 3781,
      "29": 3782,
      "mar": 3783,
      "Pro": 3784,
      "ĠCouncil": 3785,
      "http": 3786,
      "Ġadvant": 3787,
      "Ġmanager": 3788,
      "Ġrule": 3789,
      "Ġcustomers": 3790,
      "EO": 3791,
      "itely": 3792,
      "ĠPort": 3793,
      "28": 3794,
      "Ġbeaut": 3795,
      "ĠMac": 3796,
      "Ġsmart": 3797,
      "Ġgives": 3798,
      "Ġallows": 3799,
      "aud": 3800,
      "ya": 3801,
      "Ġnoted": 3802,
      "ĠChristian": 3803,
      "ĠWind": 3804,
      "part": 3805,
      "uing": 3806,
      "Ġideas": 3807,
      "Ġdetail": 3808,
      "ĠCap": 3809,
      "By": 3810,
      "uty": 3811,
      "Ġweapons": 3812,
      "ĠBel": 3813,
      "Ġreform": 3814,
      "Ġrap": 3815,
      "ĠUnion": 3816,
      "Ġuses": 3817,
      "Un": 3818,
      "resh": 3819,
      "inated": 3820,
      "Ġincome": 3821,
      "Ġbenefits": 3822,
      "iders": 3823,
      "Ġcrime": 3824,
      "cul": 3825,
      "Ġtreatment": 3826,
      "Ġfamilies": 3827,
      "ube": 3828,
      "ĠInternational": 3829,
      "Ġcrisis": 3830,
      "Ġmeasure": 3831,
      "Ġalbum": 3832,
      "Ġemb": 3833,
      "ki": 3834,
      "Ġspread": 3835,
      "Ġlif": 3836,
      "Ġcontinues": 3837,
      "ĠSchool": 3838,
      "Ġseemed": 3839,
      "Ġpeace": 3840,
      "Ġattract": 3841,
      "ocks": 3842,
      "Ġapparent": 3843,
      "ĠFlor": 3844,
      "rs": 3845,
      "Ġfeed": 3846,
      "Ġchallenge": 3847,
      "mark": 3848,
      "ĠEngland": 3849,
      "iny": 3850,
      "Ġbrother": 3851,
      "dom": 3852,
      "ĠÂ£": 3853,
      "Ġgoals": 3854,
      "Ġaltern": 3855,
      "Ġknowledge": 3856,
      "Ġsources": 3857,
      "Ġsuccessful": 3858,
      "box": 3859,
      "Ġexpand": 3860,
      "lick": 3861,
      "Ġrare": 3862,
      "Ġcharge": 3863,
      "ser": 3864,
      "Ġsto": 3865,
      "iable": 3866,
      "Ġkept": 3867,
      "ĠBre": 3868,
      "que": 3869,
      "ĠAngel": 3870,
      "Ġprimary": 3871,
      "orter": 3872,
      "ken": 3873,
      "ĠMex": 3874,
      "Ġindividuals": 3875,
      "Ġx": 3876,
      "Ġcriminal": 3877,
      "Ġplant": 3878,
      "olic": 3879,
      "ĠCr": 3880,
      "ĠEarth": 3881,
      "Ġsave": 3882,
      "ĠRob": 3883,
      "Ġspir": 3884,
      "Ġrelated": 3885,
      "ĠAir": 3886,
      "Ġcredit": 3887,
      "Ġcolor": 3888,
      "Ġspend": 3889,
      "Ġ2007": 3890,
      "ĠGeorge": 3891,
      "while": 3892,
      "Ġfully": 3893,
      "Ġstraight": 3894,
      "Ġlaun": 3895,
      "):": 3896,
      "iance": 3897,
      "ĠHam": 3898,
      "change": 3899,
      "Ġpreviously": 3900,
      "Ġplaces": 3901,
      "21": 3902,
      "Ġvoice": 3903,
      "Ġdisplay": 3904,
      "Ġlines": 3905,
      "EC": 3906,
      "inger": 3907,
      "urance": 3908,
      "ean": 3909,
      "ota": 3910,
      "vere": 3911,
      "nown": 3912,
      "500": 3913,
      "iced": 3914,
      "onents": 3915,
      "craft": 3916,
      "Ġprograms": 3917,
      "roll": 3918,
      "Ġincident": 3919,
      "Ġreached": 3920,
      "Ġprices": 3921,
      "Ġlarger": 3922,
      "Ġfeet": 3923,
      "Ġhighly": 3924,
      "ĠTom": 3925,
      "Ġclearly": 3926,
      "Ġdetermin": 3927,
      "Ġshooting": 3928,
      "ona": 3929,
      "ounds": 3930,
      "ĠPolice": 3931,
      "Some": 3932,
      "Ġprem": 3933,
      "Ġprojects": 3934,
      "Ġresources": 3935,
      "ĠHigh": 3936,
      "term": 3937,
      "lements": 3938,
      "Ġenem": 3939,
      "osh": 3940,
      "erved": 3941,
      ".âĢĻ": 3942,
      "antly": 3943,
      "Ġindic": 3944,
      "ID": 3945,
      "usion": 3946,
      "Ġmist": 3947,
      "Ġgreater": 3948,
      "Ġorganiz": 3949,
      "net": 3950,
      "Ġfighting": 3951,
      "icago": 3952,
      "ategy": 3953,
      "Ġhar": 3954,
      "Ġknows": 3955,
      "Ġresearchers": 3956,
      "Ġrise": 3957,
      "Ġoptions": 3958,
      "wide": 3959,
      "oday": 3960,
      "owers": 3961,
      "Ġtraff": 3962,
      "Ġclaimed": 3963,
      "Ġregular": 3964,
      "Ġcaused": 3965,
      "sey": 3966,
      "Ġ>": 3967,
      "Ġintegr": 3968,
      "Ġfine": 3969,
      "Ġemot": 3970,
      "ingly": 3971,
      "Ġended": 3972,
      "Ġminor": 3973,
      "Ġnote": 3974,
      "ĠUp": 3975,
      "Ġactivity": 3976,
      "Ġbeat": 3977,
      "Ġhaven": 3978,
      "Ġowners": 3979,
      "levision": 3980,
      "Ġsend": 3981,
      "Ġlear": 3982,
      "ĠGermany": 3983,
      "Ġweb": 3984,
      "ĠRec": 3985,
      "Ġsupposed": 3986,
      "uild": 3987,
      "Ġcalling": 3988,
      "ado": 3989,
      "alse": 3990,
      "ĠInternet": 3991,
      "onent": 3992,
      "icit": 3993,
      "ĠFranc": 3994,
      "Ar": 3995,
      "Ġhospital": 3996,
      "ĠBrown": 3997,
      "Ġstudies": 3998,
      "ribution": 3999,
      "ĠÃ": 4000,
      "secut": 4001,
      "Ġreflect": 4002,
      "Ġrates": 4003,
      "Ġtraditional": 4004,
      "ĠGeneral": 4005,
      "âĢĿ,": 4006,
      "Ġpun": 4007,
      "Ġliter": 4008,
      "Ġconcerns": 4009,
      "ares": 4010,
      "bon": 4011,
      "oles": 4012,
      "see": 4013,
      "Ġagreement": 4014,
      "iled": 4015,
      "Ġhappens": 4016,
      "Ġwait": 4017,
      "Ġtrou": 4018,
      "ĠAnt": 4019,
      "iven": 4020,
      "ĠMag": 4021,
      "ĠFlorida": 4022,
      "Ġshut": 4023,
      "Ġmanufact": 4024,
      "Ġraised": 4025,
      "Ġcities": 4026,
      "Ġstatus": 4027,
      "Ġabsolute": 4028,
      "Ġpropos": 4029,
      "Ġweekend": 4030,
      "ĠGold": 4031,
      "Ġrank": 4032,
      "Ġscen": 4033,
      "ĠBay": 4034,
      "rog": 4035,
      "pen": 4036,
      "Ġfemale": 4037,
      "ifying": 4038,
      "Ġgrand": 4039,
      "ĠDef": 4040,
      "Ġpros": 4041,
      "Ġadding": 4042,
      "Ġauthorities": 4043,
      "Ġjump": 4044,
      "Ġlearned": 4045,
      "ĠEvery": 4046,
      "Ġparties": 4047,
      "Ġadop": 4048,
      "Ġbasic": 4049,
      "Ġminister": 4050,
      "Ġcommer": 4051,
      "Ġpatients": 4052,
      "Ġacqu": 4053,
      "Ġprint": 4054,
      "Ġrestr": 4055,
      "Ġoffered": 4056,
      "Ġir": 4057,
      "Ð¾": 4058,
      "Ġmostly": 4059,
      "Ġeye": 4060,
      "Ġfunding": 4061,
      "33": 4062,
      "Ġgreen": 4063,
      "ĠSun": 4064,
      "ĠAP": 4065,
      "dd": 4066,
      "Ġmechan": 4067,
      "Ġnegoti": 4068,
      "Ġbirth": 4069,
      "ica": 4070,
      "Not": 4071,
      "Ġleaving": 4072,
      "Ġpolicies": 4073,
      "ĠComp": 4074,
      "istry": 4075,
      "Ġbeg": 4076,
      "Ġcharges": 4077,
      "Ġfreedom": 4078,
      "rol": 4079,
      "ĠWell": 4080,
      "Ġensure": 4081,
      "Ġlik": 4082,
      "ength": 4083,
      "ĠMo": 4084,
      "Ġwilling": 4085,
      "ĠScott": 4086,
      "Ġemployees": 4087,
      "Ġseeing": 4088,
      "Ġdire": 4089,
      "ĠFrom": 4090,
      "Ġeth": 4091,
      "Ġassault": 4092,
      "Ġslight": 4093,
      "ront": 4094,
      "Ġnormal": 4095,
      "Ġlose": 4096,
      "ĠMost": 4097,
      "Ġnames": 4098,
      "ugg": 4099,
      "Ġpush": 4100,
      "70": 4101,
      "rav": 4102,
      "Ġgold": 4103,
      "Ġstation": 4104,
      "Ġinstall": 4105,
      "cher": 4106,
      "Ġactual": 4107,
      "ĠPhil": 4108,
      "Ġrevealed": 4109,
      "Ġqual": 4110,
      "\":": 4111,
      "Ġappl": 4112,
      "Ex": 4113,
      "acing": 4114,
      "ĠOh": 4115,
      "earch": 4116,
      "miss": 4117,
      "ĠSecret": 4118,
      "iverse": 4119,
      "Ġinfluence": 4120,
      "Ġcreating": 4121,
      "Ġvirt": 4122,
      "Ġdistrict": 4123,
      "Ġstreet": 4124,
      "Ġbelieved": 4125,
      "Con": 4126,
      "Ġvac": 4127,
      "Sc": 4128,
      "Ġmer": 4129,
      "itude": 4130,
      "ĠAlex": 4131,
      "Ġpicture": 4132,
      "roid": 4133,
      "estic": 4134,
      "Ġoperations": 4135,
      "ĠAccording": 4136,
      "Ġwild": 4137,
      "ĠWestern": 4138,
      "aby": 4139,
      "ĠFrance": 4140,
      "Ġenforce": 4141,
      "rian": 4142,
      "soft": 4143,
      "ĠBer": 4144,
      "Ġdefend": 4145,
      "Ġimpl": 4146,
      "Ġwhom": 4147,
      "Here": 4148,
      "Ġjudge": 4149,
      "la": 4150,
      "ĠMod": 4151,
      "ĠReg": 4152,
      "Ġteac": 4153,
      "liament": 4154,
      "Ġposted": 4155,
      "Ġbehavior": 4156,
      "ĠLou": 4157,
      "Ġwonder": 4158,
      "Ġtick": 4159,
      "Ġelectric": 4160,
      "90": 4161,
      "Ġadult": 4162,
      "Ġwhatever": 4163,
      "Ġweight": 4164,
      "Ġbrief": 4165,
      "uman": 4166,
      "igned": 4167,
      "mine": 4168,
      "Ġconfirmed": 4169,
      "ĠLaw": 4170,
      "ĠStud": 4171,
      "ĠChicago": 4172,
      "SA": 4173,
      "Ġstrategy": 4174,
      "Ġfeeling": 4175,
      "ING": 4176,
      "ĠDel": 4177,
      "ection": 4178,
      "Ġlawy": 4179,
      "ĠHillary": 4180,
      "Ġwarn": 4181,
      "ription": 4182,
      "Ġcommit": 4183,
      "Ġmassive": 4184,
      ".'": 4185,
      "Ġlearning": 4186,
      "Ġmount": 4187,
      "ĠTrans": 4188,
      "ĠPeople": 4189,
      "ĠLet": 4190,
      "Ġcry": 4191,
      "ented": 4192,
      "pri": 4193,
      "ĠCommission": 4194,
      "ĠHealth": 4195,
      "Ġresponsible": 4196,
      "umn": 4197,
      "Ġstyle": 4198,
      "Ġarrested": 4199,
      "ĠBig": 4200,
      "Ġopening": 4201,
      "Ġtrial": 4202,
      "Ġproduced": 4203,
      "Ġfat": 4204,
      "cont": 4205,
      "oly": 4206,
      "aked": 4207,
      "rad": 4208,
      "Ġindependent": 4209,
      "Ġopposition": 4210,
      "ĠPress": 4211,
      "Le": 4212,
      "icial": 4213,
      "Ġadvoc": 4214,
      "Ġchoose": 4215,
      "Ġ80": 4216,
      "However": 4217,
      "Ġsleep": 4218,
      "no": 4219,
      "ih": 4220,
      "Ġrecords": 4221,
      "ĠWall": 4222,
      "uana": 4223,
      "Ġwat": 4224,
      "Ġfit": 4225,
      "Ġshowing": 4226,
      "met": 4227,
      "Ð°": 4228,
      "Ġcars": 4229,
      "Ġagreed": 4230,
      "ĠWhy": 4231,
      "Ġinvestment": 4232,
      "vention": 4233,
      "Pl": 4234,
      "Ġdrink": 4235,
      "Ġmarriage": 4236,
      "Ġasking": 4237,
      "Ġborder": 4238,
      "ĠCommittee": 4239,
      "Ġruns": 4240,
      "ĠOther": 4241,
      "ste": 4242,
      "Ġvill": 4243,
      "SP": 4244,
      "Ġbelief": 4245,
      "www": 4246,
      "rig": 4247,
      "Ġcore": 4248,
      "Ġmission": 4249,
      "orial": 4250,
      "Ġtemper": 4251,
      "Ġdefe": 4252,
      "Ġannounce": 4253,
      "Ġprovides": 4254,
      "Ġbrand": 4255,
      "Ġcritical": 4256,
      "Ġpartners": 4257,
      "Ġtend": 4258,
      "Ġmur": 4259,
      "ijuana": 4260,
      "Ġadvantage": 4261,
      "Ġbenefit": 4262,
      "ĠKorea": 4263,
      "bert": 4264,
      "Ġsolution": 4265,
      "Ġspecies": 4266,
      "Ġoffers": 4267,
      "cell": 4268,
      "ĠMal": 4269,
      "well": 4270,
      "Ġborn": 4271,
      "Ġoccas": 4272,
      "ĠSanders": 4273,
      "ĠBush": 4274,
      "Ġreplace": 4275,
      "Ġsun": 4276,
      "coming": 4277,
      "Ġhero": 4278,
      "Ġenter": 4279,
      "ocr": 4280,
      "Ġdollars": 4281,
      "vest": 4282,
      "Ġchurch": 4283,
      "ĠMike": 4284,
      "Ġinterested": 4285,
      "point": 4286,
      "Ġwinning": 4287,
      "Ġresidents": 4288,
      "ĠPalest": 4289,
      "Ġsection": 4290,
      "outhern": 4291,
      "Ġproduce": 4292,
      "azing": 4293,
      "Ġdigital": 4294,
      "FC": 4295,
      "ags": 4296,
      "Ġgenerally": 4297,
      "Ġfaith": 4298,
      "Ġaccused": 4299,
      "Ġvalues": 4300,
      "illing": 4301,
      "ĠMany": 4302,
      "Ġ2006": 4303,
      "ĠEv": 4304,
      "Ġpattern": 4305,
      "Ġcru": 4306,
      "Ġachieve": 4307,
      "Ġtrain": 4308,
      "Ġice": 4309,
      "olf": 4310,
      "ram": 4311,
      "ada": 4312,
      "Ġphoto": 4313,
      "ae": 4314,
      "Ġassum": 4315,
      "Ġhighest": 4316,
      "Ġchair": 4317,
      "Ġexplained": 4318,
      "Ġapplication": 4319,
      "Mr": 4320,
      "ĠBecause": 4321,
      "Ġeffective": 4322,
      "Ġdisease": 4323,
      "Ġheavy": 4324,
      "Ġdaily": 4325,
      "Ġprofessional": 4326,
      "Ġonto": 4327,
      "win": 4328,
      "Ġship": 4329,
      "Ġstrik": 4330,
      "Ġmillions": 4331,
      "Ġetc": 4332,
      "Ġcondition": 4333,
      "These": 4334,
      "Ġopened": 4335,
      "Ġbasis": 4336,
      "Ġtelevision": 4337,
      "Ġdevices": 4338,
      "Ġinitial": 4339,
      "OU": 4340,
      "Ġimages": 4341,
      "Ġhundreds": 4342,
      "ĠMil": 4343,
      "eline": 4344,
      "Ġkick": 4345,
      "Ġcoverage": 4346,
      "Image": 4347,
      "ĠJohnson": 4348,
      "Ġcontrovers": 4349,
      "gency": 4350,
      "ĠFound": 4351,
      "aks": 4352,
      "Ġmiles": 4353,
      "Ġspl": 4354,
      "Ġproposed": 4355,
      "Ġframe": 4356,
      "icrosoft": 4357,
      "ĠSecurity": 4358,
      "Ġmanagement": 4359,
      "Ġreject": 4360,
      "Ġopinion": 4361,
      "ĠLiber": 4362,
      "irgin": 4363,
      "Ġrat": 4364,
      "ĠBit": 4365,
      "ĠCanadian": 4366,
      "icians": 4367,
      "Ġcommunities": 4368,
      "orthern": 4369,
      "level": 4370,
      "ĠInstitute": 4371,
      "ĠAtt": 4372,
      "iller": 4373,
      "Ġbecomes": 4374,
      "Ġworse": 4375,
      "oom": 4376,
      "Ġthus": 4377,
      "ĠSam": 4378,
      "Ġlocation": 4379,
      "iful": 4380,
      "ĠUk": 4381,
      "Ġdocuments": 4382,
      "mission": 4383,
      "Ġscientists": 4384,
      "rial": 4385,
      "Ġmale": 4386,
      "Ġreturned": 4387,
      "icip": 4388,
      "Ġlimit": 4389,
      "uries": 4390,
      "Ġunderstanding": 4391,
      "cience": 4392,
      "BS": 4393,
      "Ġvs": 4394,
      "ĠFrancis": 4395,
      "Get": 4396,
      "ĠCup": 4397,
      "Ġvictory": 4398,
      "Ġjoin": 4399,
      "ĠCommun": 4400,
      "ipe": 4401,
      "Ġbecoming": 4402,
      "Ġneighbor": 4403,
      "zen": 4404,
      "ords": 4405,
      "Ġtypes": 4406,
      "Ġmap": 4407,
      "Ġcamera": 4408,
      "âĢ¢": 4409,
      "Cl": 4410,
      "rey": 4411,
      "Ġstated": 4412,
      "Ġlabor": 4413,
      "Ġdouble": 4414,
      "Ġassociated": 4415,
      "Ġdrugs": 4416,
      "ĠAdd": 4417,
      "Ġunlike": 4418,
      "ictions": 4419,
      "Ġsurround": 4420,
      "36": 4421,
      "ĠOur": 4422,
      "Ġleadership": 4423,
      "Ġdebt": 4424,
      "Ġepisode": 4425,
      "Ġharm": 4426,
      "Ġwealth": 4427,
      "Ġexplain": 4428,
      "ĠMP": 4429,
      "Ġamb": 4430,
      "ĠMad": 4431,
      "Ġnine": 4432,
      "Ġserved": 4433,
      "37": 4434,
      "Ġhearing": 4435,
      "Ġchem": 4436,
      "ties": 4437,
      "Ġincred": 4438,
      "Ġsupporters": 4439,
      "odes": 4440,
      "Ġcards": 4441,
      "ference": 4442,
      "spe": 4443,
      "48": 4444,
      "Ġlegislation": 4445,
      "Ġreduce": 4446,
      "istics": 4447,
      "Ġnegative": 4448,
      "Ġmax": 4449,
      "Ġ35": 4450,
      "ading": 4451,
      "ishment": 4452,
      "BA": 4453,
      "Ġbottom": 4454,
      "ĠOffice": 4455,
      "Ġobtain": 4456,
      "Ġdestroy": 4457,
      "Ġ90": 4458,
      "ios": 4459,
      "Ġserve": 4460,
      "witch": 4461,
      "Ġpurpose": 4462,
      "oman": 4463,
      "ĠLab": 4464,
      "Ġcoal": 4465,
      "ĠSl": 4466,
      "Ġspoke": 4467,
      "Ġbomb": 4468,
      "ĠJustice": 4469,
      "ography": 4470,
      "Ġcomfort": 4471,
      "Ġsolid": 4472,
      "Ġdirection": 4473,
      "Ġlaunched": 4474,
      "ears": 4475,
      "ĠMat": 4476,
      "ĠGet": 4477,
      "ST": 4478,
      "Ġdepartment": 4479,
      "ibrary": 4480,
      "Ġmicro": 4481,
      "ĠFox": 4482,
      "actions": 4483,
      "Ġextremely": 4484,
      "Ġteach": 4485,
      "ĠHall": 4486,
      "ĠNFL": 4487,
      "gu": 4488,
      "Ġfalse": 4489,
      "ander": 4490,
      "iation": 4491,
      "Ġ2000": 4492,
      "Ġillegal": 4493,
      "resp": 4494,
      "inct": 4495,
      "Ġ31": 4496,
      "ady": 4497,
      "known": 4498,
      "GB": 4499,
      "za": 4500,
      "Ġdefinitely": 4501,
      "ribe": 4502,
      "Ġconservative": 4503,
      "acity": 4504,
      "Ġinternet": 4505,
      "ĠIslamic": 4506,
      "Ġmobile": 4507,
      "works": 4508,
      "Ġtransfer": 4509,
      "Ġder": 4510,
      "ipped": 4511,
      "Ġexisting": 4512,
      "Ġhus": 4513,
      "ĠInc": 4514,
      "Ġappeal": 4515,
      "Ġfresh": 4516,
      "!âĢĿ": 4517,
      "Ġdoubt": 4518,
      "omas": 4519,
      "Ġputting": 4520,
      "ĠCarol": 4521,
      "atically": 4522,
      "ĠJer": 4523,
      "ĠYour": 4524,
      "Ġcompetition": 4525,
      "Ġdecade": 4526,
      "Ġtrend": 4527,
      "Ġbed": 4528,
      "Ġexperiment": 4529,
      "orrow": 4530,
      "which": 4531,
      "ortunately": 4532,
      "EM": 4533,
      "Ġnotes": 4534,
      "ĠGame": 4535,
      "ghan": 4536,
      "ĠChurch": 4537,
      "Ġload": 4538,
      "ĠGreat": 4539,
      "Ġshared": 4540,
      "Bl": 4541,
      "47": 4542,
      "Ġtheory": 4543,
      "Ġfloor": 4544,
      "Ġcommittee": 4545,
      "ãĤ": 4546,
      "Ġaudience": 4547,
      "Ġactive": 4548,
      "edy": 4549,
      "Ġplanning": 4550,
      "ils": 4551,
      "going": 4552,
      "CC": 4553,
      "house": 4554,
      "ario": 4555,
      "ĠGroup": 4556,
      "arant": 4557,
      "Ġran": 4558,
      "ĠIsland": 4559,
      "ĠJud": 4560,
      "ĠKh": 4561,
      "Ġmachine": 4562,
      "Ġcommercial": 4563,
      "Ġsuggested": 4564,
      "Ġnotice": 4565,
      "ĠWindows": 4566,
      "Ġeasier": 4567,
      "32": 4568,
      "ey": 4569,
      "ancy": 4570,
      "ource": 4571,
      "Ġwatching": 4572,
      "ĠRobert": 4573,
      "Americ": 4574,
      "hem": 4575,
      "Ġstructure": 4576,
      "Ġactivities": 4577,
      "Ġnor": 4578,
      "Ġviews": 4579,
      "ga": 4580,
      "Ġitems": 4581,
      "lant": 4582,
      "itable": 4583,
      "Ġargument": 4584,
      "ctors": 4585,
      "gers": 4586,
      "ĠLike": 4587,
      "season": 4588,
      "Ġmemory": 4589,
      "Ġtelling": 4590,
      "Ġseparate": 4591,
      "55": 4592,
      "DA": 4593,
      "ampionship": 4594,
      "Ġdangerous": 4595,
      "Ġcateg": 4596,
      "Ġresist": 4597,
      "ĠAc": 4598,
      "phone": 4599,
      "âĢĶâĢĶ": 4600,
      "Ġsupported": 4601,
      "Ġrepeated": 4602,
      "Ġdaughter": 4603,
      "Ġgay": 4604,
      "ius": 4605,
      "annel": 4606,
      "Ġdriving": 4607,
      "Ġentirely": 4608,
      "38": 4609,
      "semb": 4610,
      "Ġinstance": 4611,
      "Ġded": 4612,
      "Ġcook": 4613,
      "Ġrequires": 4614,
      "Ġdriver": 4615,
      "Ġradio": 4616,
      "Ġcharged": 4617,
      "ĠSince": 4618,
      "Ġ2005": 4619,
      "ĠOver": 4620,
      "Ġclosed": 4621,
      "oyal": 4622,
      "Ġworst": 4623,
      "equ": 4624,
      "Ġsmaller": 4625,
      "ĠBritain": 4626,
      "ĠTy": 4627,
      "Ġvehicle": 4628,
      "andom": 4629,
      "Ġrefere": 4630,
      "ĠFin": 4631,
      "bing": 4632,
      "Ġconsequ": 4633,
      "ĠPri": 4634,
      "Ġrefuge": 4635,
      "gn": 4636,
      "asy": 4637,
      "Ġmurder": 4638,
      "but": 4639,
      "Ġissued": 4640,
      "night": 4641,
      "Ġfinding": 4642,
      "iliar": 4643,
      "âĢĺ": 4644,
      "ĠPre": 4645,
      "Ġplays": 4646,
      "Ġcandidates": 4647,
      "Ġolder": 4648,
      "44": 4649,
      "ĠWil": 4650,
      "NA": 4651,
      "Ġupdate": 4652,
      "Ġhack": 4653,
      "ĠSup": 4654,
      "Ġvictims": 4655,
      "Ġcompar": 4656,
      "Ġsurface": 4657,
      "Ġsites": 4658,
      "tered": 4659,
      "Ġnorth": 4660,
      "Ġdie": 4661,
      "ĠJewish": 4662,
      "Ġstrength": 4663,
      "ĠUkrain": 4664,
      "ĠChris": 4665,
      "do": 4666,
      "Ġgrant": 4667,
      "Ġraise": 4668,
      "ĠAre": 4669,
      "ĠJeff": 4670,
      "ici": 4671,
      "how": 4672,
      "Ġattend": 4673,
      "Ġtools": 4674,
      "Ġcaught": 4675,
      "Ġbackground": 4676,
      "Ġplaced": 4677,
      "ĠMer": 4678,
      "Ġholding": 4679,
      "icy": 4680,
      "ribute": 4681,
      "ossible": 4682,
      "ipp": 4683,
      "osure": 4684,
      "iling": 4685,
      "izes": 4686,
      "Ġdeliver": 4687,
      "Ġcancer": 4688,
      "andon": 4689,
      "PA": 4690,
      "ĠArt": 4691,
      "Ġjustice": 4692,
      "onto": 4693,
      "Ġwaiting": 4694,
      "owl": 4695,
      "anging": 4696,
      "Ġstrateg": 4697,
      "ĠSil": 4698,
      "cknow": 4699,
      "Ġaspect": 4700,
      "ulated": 4701,
      "Ġdiscovered": 4702,
      "Ġwel": 4703,
      "Ġaccur": 4704,
      "ocal": 4705,
      "ĠJose": 4706,
      "olly": 4707,
      "Ġcatch": 4708,
      "Ġtraffic": 4709,
      "CH": 4710,
      "ait": 4711,
      "formation": 4712,
      "Ġconcerned": 4713,
      "icon": 4714,
      "ĠCEO": 4715,
      "Ġsan": 4716,
      "Ġplease": 4717,
      "aling": 4718,
      "Ġanimals": 4719,
      "Ġhasn": 4720,
      "ĠLeg": 4721,
      "Ġtask": 4722,
      "ulf": 4723,
      "pective": 4724,
      "Ġallowing": 4725,
      "Our": 4726,
      "Ġbusinesses": 4727,
      "Ġrestaur": 4728,
      "Ġtruly": 4729,
      "Ġiniti": 4730,
      "39": 4731,
      "Ã¡": 4732,
      "ĠAfrica": 4733,
      "Ġjoined": 4734,
      "ĠLos": 4735,
      "Ġeat": 4736,
      "ĠStep": 4737,
      "ĠDirect": 4738,
      "gl": 4739,
      "igan": 4740,
      "Ġmarijuana": 4741,
      "Ġannual": 4742,
      "Ġlargely": 4743,
      "overy": 4744,
      "Ġcash": 4745,
      "ĠTre": 4746,
      "ighter": 4747,
      "itz": 4748,
      "ula": 4749,
      "ros": 4750,
      "Ġtherefore": 4751,
      "ĠNor": 4752,
      "Ġrough": 4753,
      "Ġfarm": 4754,
      "Ġpresence": 4755,
      "ups": 4756,
      "Ġtim": 4757,
      "ests": 4758,
      "Ġconstruction": 4759,
      "NN": 4760,
      "Ġphil": 4761,
      "34": 4762,
      "Ġ70": 4763,
      "Ġafford": 4764,
      "Ġspokesman": 4765,
      "eah": 4766,
      "Ġblue": 4767,
      "Ðµ": 4768,
      "Ġdownload": 4769,
      "Ġconflict": 4770,
      "Ġassess": 4771,
      "udd": 4772,
      "Ġguess": 4773,
      "Ġunit": 4774,
      "Ġtransport": 4775,
      "Ġge": 4776,
      "Ġhomes": 4777,
      "ĠAssociation": 4778,
      "LE": 4779,
      "Ġcontain": 4780,
      "Ġbelieves": 4781,
      "vant": 4782,
      "More": 4783,
      "rick": 4784,
      "ception": 4785,
      "Ġoperation": 4786,
      "Ġinsurance": 4787,
      "ĠUN": 4788,
      "ĠBur": 4789,
      "Ġcontext": 4790,
      "Ġscale": 4791,
      "Ġoffensive": 4792,
      "Ġnovel": 4793,
      "nel": 4794,
      "Ġdecisions": 4795,
      "Ġwitness": 4796,
      "ĠBank": 4797,
      "Ġkid": 4798,
      "ĠAfghan": 4799,
      "Ġgeneration": 4800,
      "Ġinterests": 4801,
      "uke": 4802,
      "awn": 4803,
      "Ġabort": 4804,
      "ano": 4805,
      "ĠVirgin": 4806,
      "anda": 4807,
      "Ġenforcement": 4808,
      "Ġfinished": 4809,
      "Ġtells": 4810,
      "azine": 4811,
      "anned": 4812,
      "rim": 4813,
      "Ġhighlight": 4814,
      "PS": 4815,
      "RA": 4816,
      "Ġnewsp": 4817,
      "ĠInstead": 4818,
      "ĠJim": 4819,
      "lor": 4820,
      "Ġexerc": 4821,
      "Ġdiscussion": 4822,
      "Ġlength": 4823,
      "Ġcommitted": 4824,
      "isation": 4825,
      "Read": 4826,
      "Ġmissing": 4827,
      "Ġconclud": 4828,
      "inter": 4829,
      "ka": 4830,
      "CA": 4831,
      "Ġrecommend": 4832,
      "agn": 4833,
      "ania": 4834,
      "Ġkeeping": 4835,
      "Ġabuse": 4836,
      "ĠGOP": 4837,
      "ĠFBI": 4838,
      "ulate": 4839,
      "ĠQue": 4840,
      "Ġhair": 4841,
      "Ġbul": 4842,
      "Ġtesting": 4843,
      "oms": 4844,
      "Ġmentioned": 4845,
      "ĠVer": 4846,
      "ocracy": 4847,
      "stitution": 4848,
      "ĠFrank": 4849,
      "Ġconversation": 4850,
      "Ġowner": 4851,
      "ĠFore": 4852,
      "oted": 4853,
      "Ġphotos": 4854,
      "iser": 4855,
      "ĠMiss": 4856,
      "ĠGood": 4857,
      "Ġsports": 4858,
      "Ġproviding": 4859,
      "ãĥ": 4860,
      "Ġoccup": 4861,
      "ruit": 4862,
      "ĠAfrican": 4863,
      "ĠPalestin": 4864,
      "Ġacknow": 4865,
      "Ġspirit": 4866,
      "ĠRyan": 4867,
      "gar": 4868,
      "75": 4869,
      "ĠIsraeli": 4870,
      "Ġintroduced": 4871,
      "Ġexclus": 4872,
      "Ġhusband": 4873,
      "Ġotherwise": 4874,
      "ĠRock": 4875,
      "bre": 4876,
      "Ġfant": 4877,
      "Ġsubsc": 4878,
      "Ġstopped": 4879,
      "Des": 4880,
      "ĠSal": 4881,
      "ĠJones": 4882,
      "Ġgraph": 4883,
      "Ġcommission": 4884,
      "Why": 4885,
      "Ġearth": 4886,
      "ĠMos": 4887,
      "Ġweak": 4888,
      "Ġmanaged": 4889,
      "Ġbatter": 4890,
      "ĠTeam": 4891,
      "hens": 4892,
      "kins": 4893,
      "Ġstock": 4894,
      "hi": 4895,
      "ava": 4896,
      "Ġwindow": 4897,
      "ĠSur": 4898,
      "Ġfourth": 4899,
      "Ġinjury": 4900,
      "ĠPet": 4901,
      "Ġscript": 4902,
      "Ġmeasures": 4903,
      "cious": 4904,
      "Ġstick": 4905,
      "Photo": 4906,
      "TC": 4907,
      "Ġestablished": 4908,
      "fe": 4909,
      "Ġfuel": 4910,
      "!!": 4911,
      "lig": 4912,
      "Ġpartner": 4913,
      "49": 4914,
      "Ġsurvey": 4915,
      "amm": 4916,
      "Ġskills": 4917,
      "ĠLouis": 4918,
      "apped": 4919,
      "ĠYes": 4920,
      "Ġremoved": 4921,
      "ĠSupreme": 4922,
      "Ġsouth": 4923,
      "ronic": 4924,
      "Ġpair": 4925,
      "Ġuseful": 4926,
      "Ġrelatively": 4927,
      "ĠJapanese": 4928,
      "ĠPak": 4929,
      "ĠGree": 4930,
      "with": 4931,
      "Ġprotection": 4932,
      "Ġspect": 4933,
      "Ġidentified": 4934,
      "Ġtalks": 4935,
      "Ġsea": 4936,
      "Ġgirls": 4937,
      "Ġbanks": 4938,
      "isf": 4939,
      "ĠAngeles": 4940,
      "ĠMicrosoft": 4941,
      "Ġconnection": 4942,
      "Ġtrip": 4943,
      "Ġfocused": 4944,
      "Ġtough": 4945,
      "ĠJoe": 4946,
      "Ġarrived": 4947,
      "odies": 4948,
      "ĠRichard": 4949,
      "Ġ2018": 4950,
      "Ġhate": 4951,
      "what": 4952,
      "Ġfailure": 4953,
      "ĠMartin": 4954,
      "Ġbeer": 4955,
      "aren": 4956,
      "Ġguard": 4957,
      "Ġmodels": 4958,
      "ym": 4959,
      "Ġdefensive": 4960,
      "azon": 4961,
      "Ġfiles": 4962,
      "ĠGovernment": 4963,
      "ĠMet": 4964,
      "Ġtransl": 4965,
      "Ġidentity": 4966,
      "Ġdetect": 4967,
      "Ġveter": 4968,
      "HL": 4969,
      "wing": 4970,
      "enses": 4971,
      "ĠSecretary": 4972,
      "gypt": 4973,
      "Ġkilling": 4974,
      "outs": 4975,
      "Ġcorner": 4976,
      "rees": 4977,
      "bor": 4978,
      "Ġsides": 4979,
      "rd": 4980,
      "Ġfunds": 4981,
      "Ġaggress": 4982,
      "Ġfeels": 4983,
      "!\"": 4984,
      "prof": 4985,
      "Ġplanned": 4986,
      "Ġfigures": 4987,
      "Ġsetting": 4988,
      "Ġgender": 4989,
      "Ġsuggests": 4990,
      "EL": 4991,
      "Ġprefer": 4992,
      "Ġappoint": 4993,
      "Ġstarts": 4994,
      "ĠTim": 4995,
      "Ġpet": 4996,
      "adium": 4997,
      "aven": 4998,
      "Ġtweet": 4999,
      "ĠAndroid": 5000,
      "Ġaward": 5001,
      "real": 5002,
      "Ġthanks": 5003,
      "Ġexchange": 5004,
      "Ġappropri": 5005,
      "Ġhelping": 5006,
      "ĠProf": 5007,
      "Ġhappening": 5008,
      "kin": 5009,
      "verse": 5010,
      "ĠService": 5011,
      "place": 5012,
      "Ġsupply": 5013,
      "suit": 5014,
      "Ġcircum": 5015,
      "hedul": 5016,
      "Ġamazing": 5017,
      "Ġorganizations": 5018,
      "uate": 5019,
      "ĠSyrian": 5020,
      "ĠBern": 5021,
      "Ġtaxes": 5022,
      "Ġmere": 5023,
      "Ġslightly": 5024,
      "ancing": 5025,
      "Ġheat": 5026,
      "ĠPC": 5027,
      "ucky": 5028,
      "ĠAlthough": 5029,
      "mas": 5030,
      "64": 5031,
      "ĠDec": 5032,
      "31": 5033,
      "ours": 5034,
      "Ġwish": 5035,
      "ĠTheir": 5036,
      "Ġstruct": 5037,
      "Ġimmigration": 5038,
      "makers": 5039,
      "rency": 5040,
      "Ġsust": 5041,
      "ĠMary": 5042,
      "arsh": 5043,
      "ĠMexico": 5044,
      "uters": 5045,
      "Ġcells": 5046,
      "Ġspeaking": 5047,
      "Ġdomestic": 5048,
      "ĠWeb": 5049,
      "Ġvotes": 5050,
      "Ġmarkets": 5051,
      "acks": 5052,
      "ĠMiddle": 5053,
      "mitted": 5054,
      "Ġdecide": 5055,
      "agues": 5056,
      "Ġcarried": 5057,
      "ĠMont": 5058,
      "Ġpit": 5059,
      "arks": 5060,
      "Ġbigger": 5061,
      "Ġremind": 5062,
      "Ġplanet": 5063,
      "ĠInter": 5064,
      "ĠThomas": 5065,
      "Ġsolar": 5066,
      "ynam": 5067,
      "Trump": 5068,
      "obby": 5069,
      "Ġaccounts": 5070,
      "Ġturns": 5071,
      "ĠPeter": 5072,
      "Ġsequ": 5073,
      "range": 5074,
      "Ġunion": 5075,
      "Ġ2004": 5076,
      "Ġsteps": 5077,
      "Ġmental": 5078,
      "Ġneighborhood": 5079,
      "cks": 5080,
      "Ġprinc": 5081,
      "From": 5082,
      "ĠPut": 5083,
      "mail": 5084,
      "ĠArmy": 5085,
      "****": 5086,
      "Ġbalance": 5087,
      "Ġclick": 5088,
      "Ġexperts": 5089,
      "ĠAlso": 5090,
      "ansas": 5091,
      "state": 5092,
      "oston": 5093,
      "Ġcollection": 5094,
      "dden": 5095,
      "Ġprofessor": 5096,
      "Ġ32": 5097,
      "Ġvariety": 5098,
      "ĠTime": 5099,
      "Ġseeking": 5100,
      "Ġsounds": 5101,
      "Ġfle": 5102,
      "Ġlosing": 5103,
      "Ġreligion": 5104,
      "ĠAri": 5105,
      "Last": 5106,
      "Ġmigr": 5107,
      "ĠSub": 5108,
      "Ġdepend": 5109,
      "ĠIr": 5110,
      "ĠPrime": 5111,
      "illa": 5112,
      "Ġelements": 5113,
      "ĠResearch": 5114,
      "urrent": 5115,
      "Go": 5116,
      "ĠTwo": 5117,
      "Ġroll": 5118,
      "onym": 5119,
      "Ġdropped": 5120,
      "erous": 5121,
      "ĠDen": 5122,
      "roud": 5123,
      "Ġappearance": 5124,
      "Äģ": 5125,
      "Ġgain": 5126,
      "ĠOut": 5127,
      "Ġfellow": 5128,
      "iams": 5129,
      "Ġterrit": 5130,
      "Ġfamiliar": 5131,
      "uct": 5132,
      "Ġagencies": 5133,
      "Ġimpossible": 5134,
      "cons": 5135,
      "Ġchanging": 5136,
      "ĠSpr": 5137,
      "Ġinnov": 5138,
      "icide": 5139,
      "Ġpossibility": 5140,
      "ĠUs": 5141,
      "Ġstandards": 5142,
      "Ġuns": 5143,
      "Ġbeautiful": 5144,
      "eless": 5145,
      "Ġhumans": 5146,
      "Ġhealthy": 5147,
      "Ġcorporate": 5148,
      "ocol": 5149,
      "Ġvision": 5150,
      "ĠCarolina": 5151,
      "ĠPM": 5152,
      "och": 5153,
      "ĠTer": 5154,
      "ĠLast": 5155,
      "Ġregarding": 5156,
      "Ġappre": 5157,
      "stream": 5158,
      "Ġfiled": 5159,
      "ias": 5160,
      "Ġdat": 5161,
      "ĠCath": 5162,
      "Ġstanding": 5163,
      "Ġapply": 5164,
      "Ġanimal": 5165,
      "46": 5166,
      "Ġnone": 5167,
      "Ġstrike": 5168,
      "Ġcuts": 5169,
      "Ġphilos": 5170,
      "IM": 5171,
      "Ġerror": 5172,
      "Ġ45": 5173,
      "Ġinternal": 5174,
      "Ġsitting": 5175,
      "Ġequip": 5176,
      "vis": 5177,
      "Ġpossibly": 5178,
      "Ġtests": 5179,
      "Ġapparently": 5180,
      "look": 5181,
      "ĠCentral": 5182,
      "Ġarmy": 5183,
      "Ġsudden": 5184,
      "Ġschedul": 5185,
      "Ġvast": 5186,
      "Ġdegree": 5187,
      "IP": 5188,
      "ĠJon": 5189,
      "Ġworry": 5190,
      "Ġabsolutely": 5191,
      "Ġlived": 5192,
      "aine": 5193,
      "Ġalternative": 5194,
      "Ġcold": 5195,
      "Ġcrew": 5196,
      "Ġunivers": 5197,
      "Ġflight": 5198,
      "ĠToronto": 5199,
      "Ġseconds": 5200,
      "Ġclin": 5201,
      "Ġdeveloping": 5202,
      "ores": 5203,
      "Ġcolle": 5204,
      "Ġoperating": 5205,
      "otic": 5206,
      "Ġtack": 5207,
      "apers": 5208,
      "Ġdevelopers": 5209,
      "cel": 5210,
      "Ġunits": 5211,
      "Ġguarant": 5212,
      "osen": 5213,
      "Ġuniversity": 5214,
      "Ġincreasingly": 5215,
      "Ġenvironmental": 5216,
      "Ġsurprise": 5217,
      "ĠDistrict": 5218,
      "ola": 5219,
      "Ġrich": 5220,
      "Ġsoldiers": 5221,
      "ader": 5222,
      "ansion": 5223,
      "OL": 5224,
      "rible": 5225,
      "Ġprepared": 5226,
      "Ġcloser": 5227,
      "ayer": 5228,
      "run": 5229,
      "itect": 5230,
      "ĠFoundation": 5231,
      "ĠEgypt": 5232,
      "Ġauthority": 5233,
      "isted": 5234,
      "Ġacadem": 5235,
      "Of": 5236,
      "Ġtourn": 5237,
      "Ġwriter": 5238,
      "ĠUnder": 5239,
      "coh": 5240,
      "Ġhonest": 5241,
      "Ġultimately": 5242,
      "Ġpaying": 5243,
      "inent": 5244,
      "pret": 5245,
      "Ġmulti": 5246,
      "Ġteen": 5247,
      "Ġforms": 5248,
      "Ġhousing": 5249,
      "Ġvul": 5250,
      "Even": 5251,
      "arp": 5252,
      "Ġtrail": 5253,
      "aded": 5254,
      "ressive": 5255,
      "ashed": 5256,
      "lyn": 5257,
      "gen": 5258,
      "0000": 5259,
      "Ġtwice": 5260,
      "Ġimagine": 5261,
      "Ġresponsibility": 5262,
      "Ġserver": 5263,
      "ĠCollege": 5264,
      "Ġcapacity": 5265,
      "olit": 5266,
      "Ġunless": 5267,
      "Ġapart": 5268,
      "ini": 5269,
      "related": 5270,
      "Ġcovered": 5271,
      "Ġexpensive": 5272,
      "Ġarms": 5273,
      "ologies": 5274,
      "Ġfactors": 5275,
      "ĠAtlant": 5276,
      "imal": 5277,
      "ĠJes": 5278,
      "Ġfif": 5279,
      "TS": 5280,
      "Ġque": 5281,
      "Ġselling": 5282,
      "Ġscientific": 5283,
      "stein": 5284,
      "Ġadjust": 5285,
      "Ġelections": 5286,
      "Ġfol": 5287,
      "ĠVirginia": 5288,
      "class": 5289,
      "Ġpresented": 5290,
      "Ġtight": 5291,
      "Ġbringing": 5292,
      "rastructure": 5293,
      "Ġsch": 5294,
      "oving": 5295,
      "ĠImages": 5296,
      "Ġpil": 5297,
      "Ġshall": 5298,
      "Ġplenty": 5299,
      "Ġmaster": 5300,
      "Ġdeploy": 5301,
      "Ġflow": 5302,
      "Ġexpert": 5303,
      "Ġskin": 5304,
      "Ġsale": 5305,
      "ĠRem": 5306,
      "Ġintended": 5307,
      "Ġdomin": 5308,
      "ĠPhoto": 5309,
      "Ġhun": 5310,
      "Ġath": 5311,
      "idden": 5312,
      "Ġgovernments": 5313,
      "ĠConserv": 5314,
      "Ġfundament": 5315,
      "Ġinstit": 5316,
      "Ġodd": 5317,
      "Ġhelps": 5318,
      "Ġproposal": 5319,
      "Ġconvention": 5320,
      "ĠMur": 5321,
      "person": 5322,
      "road": 5323,
      "endment": 5324,
      "ĠMel": 5325,
      "=\"": 5326,
      "terday": 5327,
      "sell": 5328,
      "ĠPublic": 5329,
      "Ġoccurred": 5330,
      "pm": 5331,
      "ĠCamp": 5332,
      "].": 5333,
      "lymp": 5334,
      "Ġfamous": 5335,
      "Ġsymb": 5336,
      ",'": 5337,
      "enced": 5338,
      "Ġsport": 5339,
      "Ġcriticism": 5340,
      "lets": 5341,
      "Ġpurchase": 5342,
      "Ġconsult": 5343,
      "ĠBoston": 5344,
      "ĠThose": 5345,
      "Ġvir": 5346,
      "65": 5347,
      "LA": 5348,
      "Ġestimated": 5349,
      "ipping": 5350,
      "ĠPac": 5351,
      "ĠJournal": 5352,
      "Ġdetermine": 5353,
      "ĠFe": 5354,
      "Ġattorney": 5355,
      "mm": 5356,
      "olved": 5357,
      "OW": 5358,
      "ĠMass": 5359,
      "Ġcombat": 5360,
      "Ġtast": 5361,
      "Ġpercentage": 5362,
      "Ġrid": 5363,
      "anche": 5364,
      "ĠFire": 5365,
      "Ð¸": 5366,
      "Ġbaby": 5367,
      "ĠChief": 5368,
      "ĠPlease": 5369,
      "ÑĤ": 5370,
      "Ġsubs": 5371,
      "Ġgar": 5372,
      "ĠJo": 5373,
      "lands": 5374,
      "Ġpotentially": 5375,
      "uration": 5376,
      "Just": 5377,
      "Ġweren": 5378,
      "Ġrefused": 5379,
      "ĠParis": 5380,
      "alls": 5381,
      "Ġcouncil": 5382,
      "Ġstress": 5383,
      "ĠGal": 5384,
      "ĠFrancisco": 5385,
      "ureau": 5386,
      "Ġseasons": 5387,
      "obody": 5388,
      "Ġprove": 5389,
      "rier": 5390,
      "Ġrevolution": 5391,
      "Ġstars": 5392,
      "Ġmut": 5393,
      "Ġboost": 5394,
      "Ġsignificantly": 5395,
      "DP": 5396,
      "Ġstreets": 5397,
      "porary": 5398,
      "Ġinsp": 5399,
      "atures": 5400,
      "Ġbreat": 5401,
      "Ġrandom": 5402,
      "oty": 5403,
      "Ġbroken": 5404,
      "ht": 5405,
      "Ġspecifically": 5406,
      "Ġtele": 5407,
      "Ġhyp": 5408,
      "Ġconclus": 5409,
      "rie": 5410,
      "under": 5411,
      "ĠVe": 5412,
      "phas": 5413,
      "isher": 5414,
      "ĠLat": 5415,
      "sen": 5416,
      "cean": 5417,
      "Ġfinish": 5418,
      "Ġ1990": 5419,
      "Ġcarbon": 5420,
      "Ġapplications": 5421,
      "Up": 5422,
      "Let": 5423,
      "Ġbought": 5424,
      "Ġheav": 5425,
      "Ġbrow": 5426,
      "uit": 5427,
      "edia": 5428,
      "rave": 5429,
      "Every": 5430,
      "ĠMedic": 5431,
      "ĠSant": 5432,
      "Ġscr": 5433,
      "Ġdin": 5434,
      "ĠBook": 5435,
      "Ġvoting": 5436,
      "Ġfired": 5437,
      "ĠOnce": 5438,
      "Ġoffering": 5439,
      "Ġpredict": 5440,
      "Ġdistance": 5441,
      "ocking": 5442,
      "ĠBitcoin": 5443,
      "Ġoriginally": 5444,
      "ĠSaud": 5445,
      "Ġpieces": 5446,
      "Ġvoted": 5447,
      "Ġton": 5448,
      "Res": 5449,
      "Ġsector": 5450,
      "ĠOpen": 5451,
      "Ġthank": 5452,
      "Ġsigns": 5453,
      "useum": 5454,
      "Ġnar": 5455,
      "Ġpanel": 5456,
      "Ġyards": 5457,
      "ĠDuring": 5458,
      "Ġclot": 5459,
      "Ġtroops": 5460,
      "Ġexpressed": 5461,
      "Do": 5462,
      "Ġlocated": 5463,
      "Ġaffected": 5464,
      "ĠCharl": 5465,
      "Ġrapid": 5466,
      "that": 5467,
      "ĠOlymp": 5468,
      "Ġjail": 5469,
      "noon": 5470,
      "Ġmotiv": 5471,
      "Ġ195": 5472,
      "Ġtact": 5473,
      "Ġagent": 5474,
      "ĠBBC": 5475,
      "Ġsecure": 5476,
      "ĠWilliams": 5477,
      "vin": 5478,
      "Ġremained": 5479,
      "Ġpointed": 5480,
      "Ġprime": 5481,
      "Ġdiscl": 5482,
      "odd": 5483,
      "Ġcas": 5484,
      "Ġcultural": 5485,
      "ĠAny": 5486,
      "Ġera": 5487,
      "Ġgreatest": 5488,
      "Ġbroke": 5489,
      "Ġvulner": 5490,
      "uzz": 5491,
      "hand": 5492,
      "ashion": 5493,
      "ĠProt": 5494,
      "Ġargued": 5495,
      "yr": 5496,
      "Ġdream": 5497,
      "Ġminimum": 5498,
      "Ġconducted": 5499,
      "ION": 5500,
      "oral": 5501,
      "ĠFederal": 5502,
      "Ġplus": 5503,
      "Ab": 5504,
      "Ġfacing": 5505,
      "ĠSol": 5506,
      "Ġregime": 5507,
      "life": 5508,
      "onom": 5509,
      "Ġchallenges": 5510,
      "ĠRiver": 5511,
      "ket": 5512,
      "Ġcolumn": 5513,
      "ĠLee": 5514,
      "IV": 5515,
      "Ġshape": 5516,
      "Ġyouth": 5517,
      "ivered": 5518,
      "Ġremaining": 5519,
      "anish": 5520,
      "standing": 5521,
      "Ġweapon": 5522,
      "Ġretail": 5523,
      "Ġsupporting": 5524,
      "Ġobviously": 5525,
      "ĠAustralian": 5526,
      "Ġremove": 5527,
      "ĠTHE": 5528,
      "Ġfaster": 5529,
      "ĠSing": 5530,
      "First": 5531,
      "etic": 5532,
      "Ġreduced": 5533,
      "aints": 5534,
      "ĠGuard": 5535,
      "Ġplants": 5536,
      "Ġruling": 5537,
      "Ġequipment": 5538,
      "Ġchemical": 5539,
      "Ġreporters": 5540,
      "Ġinfrastructure": 5541,
      "ĠUSA": 5542,
      "icate": 5543,
      "Ġexperienced": 5544,
      "ighters": 5545,
      "Ġgrew": 5546,
      "Ġequal": 5547,
      "Ġinvolve": 5548,
      "ĠFree": 5549,
      "Ġelected": 5550,
      "Ġcopyright": 5551,
      "PD": 5552,
      "oves": 5553,
      "hab": 5554,
      "host": 5555,
      "Ġpositions": 5556,
      "pet": 5557,
      "ĠRub": 5558,
      "Ġclim": 5559,
      "Ġrevenue": 5560,
      "Ġdram": 5561,
      "Ġexplos": 5562,
      "Ġmethods": 5563,
      "eder": 5564,
      "Ġgrab": 5565,
      "Since": 5566,
      "Ġglass": 5567,
      "Ġbelong": 5568,
      "ownt": 5569,
      "Ġspring": 5570,
      "ĠWho": 5571,
      "Ġvehicles": 5572,
      "Ġhandle": 5573,
      "Ġaid": 5574,
      "ĠSocial": 5575,
      "uster": 5576,
      "Ġherself": 5577,
      "Ġlisten": 5578,
      "ucks": 5579,
      "Ġproceed": 5580,
      "plom": 5581,
      "Ġsurprising": 5582,
      "ĠAmazon": 5583,
      "Pe": 5584,
      "Ġexcited": 5585,
      "ompl": 5586,
      "Ġpassing": 5587,
      "Ġmarg": 5588,
      "Rep": 5589,
      "Ġ2003": 5590,
      "Ġends": 5591,
      "abilities": 5592,
      "Ġcooper": 5593,
      "Ġtalked": 5594,
      "ĠRo": 5595,
      "Ġcontrast": 5596,
      "Ġrecorded": 5597,
      "ĠHen": 5598,
      "Ġhurt": 5599,
      "ogue": 5600,
      "77": 5601,
      "TH": 5602,
      "Ġhol": 5603,
      "Ġliberal": 5604,
      "ordin": 5605,
      "Ġopposed": 5606,
      "Ġdetermined": 5607,
      "Ġprosecut": 5608,
      "Ġtrig": 5609,
      "ruption": 5610,
      "razy": 5611,
      "hered": 5612,
      "ND": 5613,
      "orage": 5614,
      "Ġafternoon": 5615,
      "95": 5616,
      "Well": 5617,
      "upp": 5618,
      "Ġbatt": 5619,
      "ĠBet": 5620,
      "Ġsem": 5621,
      "ĠSteve": 5622,
      "Ġthr": 5623,
      "ĠBoth": 5624,
      "Ġ500": 5625,
      "Ġrent": 5626,
      "Ġprivacy": 5627,
      "Ġshift": 5628,
      "nell": 5629,
      "centr": 5630,
      "Ġprospect": 5631,
      "Ġcart": 5632,
      "Ġelimin": 5633,
      "ĠSov": 5634,
      "apping": 5635,
      "Ġidentify": 5636,
      "Ġindeed": 5637,
      "Ġdenied": 5638,
      "Ġpulled": 5639,
      "ĠTurkey": 5640,
      "cohol": 5641,
      "Ġtreated": 5642,
      "Ġappreci": 5643,
      "Ġwood": 5644,
      "Ġid": 5645,
      "Ġbasically": 5646,
      "Ġbound": 5647,
      "obe": 5648,
      "Ġwearing": 5649,
      "Ġconsidering": 5650,
      "Ġwidely": 5651,
      "arl": 5652,
      "Ġdepart": 5653,
      "Ġ//": 5654,
      "reens": 5655,
      "Ġhopes": 5656,
      "Ġconstruct": 5657,
      "Am": 5658,
      "Ġemergency": 5659,
      "col": 5660,
      "Ġfactor": 5661,
      "Ġseriously": 5662,
      "Ġ2001": 5663,
      "Ġarmed": 5664,
      "oken": 5665,
      "Ġleads": 5666,
      "Ġproced": 5667,
      "ĠRoad": 5668,
      "Ġenemy": 5669,
      "Ġast": 5670,
      "ĠToday": 5671,
      "essions": 5672,
      "ĠDaily": 5673,
      "His": 5674,
      "Ġdiss": 5675,
      "Ġsuit": 5676,
      "Ġreporting": 5677,
      "Ġdismiss": 5678,
      "........": 5679,
      "aniel": 5680,
      "Ġevening": 5681,
      "Ġentertain": 5682,
      "Ġturning": 5683,
      "Ġcompleted": 5684,
      "ĠOhio": 5685,
      "unte": 5686,
      "Ġunable": 5687,
      "ĠMuslims": 5688,
      "42": 5689,
      "rant": 5690,
      "Ġopportunities": 5691,
      "Ġconsumers": 5692,
      "Ġsac": 5693,
      "edd": 5694,
      "Ġstret": 5695,
      "va": 5696,
      "ĠPhot": 5697,
      "ĠMa": 5698,
      "Ġwrites": 5699,
      "MA": 5700,
      "Ġdifferences": 5701,
      "PR": 5702,
      "Ġreact": 5703,
      "Ġdelivered": 5704,
      "Sp": 5705,
      "Ġgiant": 5706,
      "Ġminute": 5707,
      "gment": 5708,
      "Ġadvert": 5709,
      "water": 5710,
      "Ġinstruct": 5711,
      "Ġfilms": 5712,
      "ĠShow": 5713,
      "],": 5714,
      "Ġseat": 5715,
      "ĠCru": 5716,
      "Ġsevere": 5717,
      "Ġupgr": 5718,
      "Ġsad": 5719,
      "Another": 5720,
      "SS": 5721,
      "Ġplot": 5722,
      "Ġbroadcast": 5723,
      "Ġpages": 5724,
      "Ġmort": 5725,
      "Ġbull": 5726,
      "ĠColor": 5727,
      "ĠRomney": 5728,
      "care": 5729,
      "yth": 5730,
      "ĠLabour": 5731,
      "TV": 5732,
      "Ġexplo": 5733,
      "Ġaircraft": 5734,
      "Ġbodies": 5735,
      "oking": 5736,
      "Ġpoliticians": 5737,
      "Ġmessages": 5738,
      "Ġcombined": 5739,
      "05": 5740,
      "Ġsets": 5741,
      "Ġpitch": 5742,
      "idel": 5743,
      "Ġleaves": 5744,
      "can": 5745,
      "ĠNov": 5746,
      "rawn": 5747,
      "war": 5748,
      "Ġvalid": 5749,
      "Ġtalent": 5750,
      "osite": 5751,
      "ĠRad": 5752,
      "Ġcaption": 5753,
      "Ġshop": 5754,
      "date": 5755,
      "elly": 5756,
      "Ġfly": 5757,
      "ampion": 5758,
      "Ġstands": 5759,
      "Ġresponded": 5760,
      "zer": 5761,
      "ĠSqu": 5762,
      "Ġsubstant": 5763,
      "ĠAndrew": 5764,
      "Ġtrouble": 5765,
      "Ġrow": 5766,
      "Ġpackage": 5767,
      "ĠStan": 5768,
      "Ġloved": 5769,
      "Ġhttps": 5770,
      "Ġadvance": 5771,
      "eds": 5772,
      "Ġmatters": 5773,
      "Ġdisappoint": 5774,
      "ĠRE": 5775,
      "aped": 5776,
      "Se": 5777,
      "Ġsatisf": 5778,
      "ĠHaw": 5779,
      "abled": 5780,
      "Ġlots": 5781,
      "ilty": 5782,
      "ĠMedia": 5783,
      "Ġperman": 5784,
      "Ġreference": 5785,
      "mosp": 5786,
      "Ġswitch": 5787,
      "ensions": 5788,
      "ĠRel": 5789,
      "apter": 5790,
      "Ġinstitutions": 5791,
      "isters": 5792,
      "Ġdebut": 5793,
      "Ġquiet": 5794,
      "ĠLin": 5795,
      "Ġaccompl": 5796,
      "Ġproud": 5797,
      "Ġmal": 5798,
      "Ġcentre": 5799,
      "Ġperspective": 5800,
      "respond": 5801,
      "ita": 5802,
      "Ġprompt": 5803,
      "Ġ00": 5804,
      "Ġfra": 5805,
      "Ġapps": 5806,
      "lines": 5807,
      "Ġfrustr": 5808,
      "Ġlit": 5809,
      "Ġelement": 5810,
      "anged": 5811,
      "ishes": 5812,
      "Ġvideos": 5813,
      "Ġcollabor": 5814,
      "Ġtypically": 5815,
      "43": 5816,
      "Can": 5817,
      "ĠMatt": 5818,
      "Ġadmitted": 5819,
      "asp": 5820,
      "Ġsession": 5821,
      "ĠWal": 5822,
      "Ġapproved": 5823,
      "ĠMichigan": 5824,
      "Ġstruggle": 5825,
      "Ġforget": 5826,
      "IG": 5827,
      "Ġaccident": 5828,
      "Ġupdates": 5829,
      "gent": 5830,
      "uous": 5831,
      "Ind": 5832,
      "Ġnewspaper": 5833,
      "ache": 5834,
      "Ġvan": 5835,
      "Ġmarried": 5836,
      "ĠNAS": 5837,
      "41": 5838,
      "Ġtransition": 5839,
      "sts": 5840,
      "ĠHel": 5841,
      "Ġvisual": 5842,
      "Ġcoast": 5843,
      "Ġedge": 5844,
      "ĠGeorg": 5845,
      "App": 5846,
      "Ġcalcul": 5847,
      "88": 5848,
      "ĠScot": 5849,
      "Ġreaction": 5850,
      "TA": 5851,
      "ĠLib": 5852,
      "issions": 5853,
      "Ġcapable": 5854,
      "astern": 5855,
      "Ġmovies": 5856,
      "Ġnumerous": 5857,
      "Ġlegit": 5858,
      "Ġpicked": 5859,
      "Ġconcentr": 5860,
      "Ġrenew": 5861,
      "urb": 5862,
      "Ġexcell": 5863,
      "esters": 5864,
      "Ġordered": 5865,
      "ĠWilliam": 5866,
      "Ġattempts": 5867,
      "called": 5868,
      "Ġexperiences": 5869,
      ",[": 5870,
      "rid": 5871,
      "Ġshouldn": 5872,
      "Ġconfident": 5873,
      "ĠDou": 5874,
      "Ġmode": 5875,
      "Ġmissed": 5876,
      "Ġquarterback": 5877,
      "ĠDirector": 5878,
      "66": 5879,
      "adow": 5880,
      "ulations": 5881,
      "Ġtechnical": 5882,
      "ributed": 5883,
      "TER": 5884,
      "ĠYet": 5885,
      "dule": 5886,
      "Ġreaders": 5887,
      "ĠPower": 5888,
      "Ġapprox": 5889,
      "ĠPakistan": 5890,
      "ounded": 5891,
      "ĠProject": 5892,
      "ĠSpace": 5893,
      "Ġburn": 5894,
      "Ġmand": 5895,
      "Over": 5896,
      "ĠJackson": 5897,
      "Yes": 5898,
      "Ġviolent": 5899,
      "Ġadvice": 5900,
      "Cont": 5901,
      "Ġemphas": 5902,
      "ĠAfghanistan": 5903,
      "ionally": 5904,
      "Ġemails": 5905,
      "Ġreportedly": 5906,
      "Ġpowers": 5907,
      "unction": 5908,
      "ternal": 5909,
      "Ġcrimes": 5910,
      "====": 5911,
      "Ġ1980": 5912,
      "ĠMem": 5913,
      "Ġoptim": 5914,
      "Ġdeclined": 5915,
      "Ġobserv": 5916,
      "uls": 5917,
      "Ġcraft": 5918,
      "Ġexplains": 5919,
      "Ġtun": 5920,
      "Ġongoing": 5921,
      "enture": 5922,
      "Ġwear": 5923,
      "II": 5924,
      "reland": 5925,
      "Ġquant": 5926,
      "Ġfish": 5927,
      "Other": 5928,
      "Ġconstitution": 5929,
      "Ġfaces": 5930,
      "vey": 5931,
      "Ġprin": 5932,
      ",âĢĻ": 5933,
      "Ġaccepted": 5934,
      "Ġboss": 5935,
      "Ġfilled": 5936,
      "Ġpublicly": 5937,
      "Ġinitially": 5938,
      "Ġstatements": 5939,
      "ĠUkraine": 5940,
      "Ġcann": 5941,
      "Ġcircumst": 5942,
      "During": 5943,
      "Ġdecre": 5944,
      "ĠiPh": 5945,
      "Ġgovernor": 5946,
      "tion": 5947,
      "Ġmagazine": 5948,
      "()": 5949,
      "ĠGM": 5950,
      "ĠForce": 5951,
      "ĠPenn": 5952,
      "Ġfacts": 5953,
      "free": 5954,
      "long": 5955,
      "icious": 5956,
      "Ġconfirm": 5957,
      "ilit": 5958,
      "ĠBob": 5959,
      "De": 5960,
      "ĠJul": 5961,
      "Qu": 5962,
      "Ġflat": 5963,
      "Ġfindings": 5964,
      "Ġdeclared": 5965,
      "Ġsuffered": 5966,
      "cos": 5967,
      "agan": 5968,
      "Ġauth": 5969,
      "usiness": 5970,
      "istered": 5971,
      "Ġeditor": 5972,
      "amin": 5973,
      "Ġzone": 5974,
      "pass": 5975,
      "ĠDC": 5976,
      "ĠChristmas": 5977,
      "ĠTop": 5978,
      "nergy": 5979,
      "Ġdrivers": 5980,
      "Ġforg": 5981,
      "Ġconfidence": 5982,
      "Ġnut": 5983,
      "Ġcrack": 5984,
      "mates": 5985,
      "ato": 5986,
      "razil": 5987,
      "Ġlabel": 5988,
      "Ġabortion": 5989,
      "Ġnecessarily": 5990,
      "acle": 5991,
      "Ġnearby": 5992,
      "Ġdiplom": 5993,
      "Ġdelay": 5994,
      "Ġwarned": 5995,
      "Ġterrorist": 5996,
      "Ġdynam": 5997,
      "ĠRod": 5998,
      "Ġallegations": 5999,
      "Ġarchitect": 6000,
      "orse": 6001,
      "Ġgather": 6002,
      "resents": 6003,
      "Ġcontains": 6004,
      "ĠBrook": 6005,
      "rum": 6006,
      "ĠWood": 6007,
      "American": 6008,
      "Ġeverybody": 6009,
      "ĠFer": 6010,
      "lo": 6011,
      "Ġapplied": 6012,
      "ourney": 6013,
      "Ġfranch": 6014,
      "irty": 6015,
      "Ġmoral": 6016,
      "Ġrealize": 6017,
      "85": 6018,
      "Ġrain": 6019,
      "Ġarticles": 6020,
      "Ġtradition": 6021,
      "09": 6022,
      "Ġappropriate": 6023,
      "Ġclient": 6024,
      "ĠJews": 6025,
      "Ġhell": 6026,
      "ĠSaudi": 6027,
      "angers": 6028,
      "sembly": 6029,
      "Oh": 6030,
      "arters": 6031,
      "Ġneither": 6032,
      "arden": 6033,
      "ĠTechn": 6034,
      "Ġske": 6035,
      "ĠWeek": 6036,
      "Ġ36": 6037,
      "mond": 6038,
      "zona": 6039,
      "Ġeffectively": 6040,
      "Although": 6041,
      "uations": 6042,
      "esome": 6043,
      "ĠIll": 6044,
      "ĠSum": 6045,
      "ĠRead": 6046,
      "Ġtech": 6047,
      "enda": 6048,
      "ĠHy": 6049,
      "Ġourselves": 6050,
      "Ġrot": 6051,
      "ii": 6052,
      "Ġessentially": 6053,
      "ĠSports": 6054,
      "Ġdial": 6055,
      "irds": 6056,
      "Ġtransform": 6057,
      "Ġcreation": 6058,
      "Ġpictures": 6059,
      "Ġweather": 6060,
      "Many": 6061,
      "writ": 6062,
      "Donald": 6063,
      "agers": 6064,
      "Ġbond": 6065,
      "Spe": 6066,
      "Ġfemin": 6067,
      "olt": 6068,
      "Ġcontest": 6069,
      "ĠClass": 6070,
      "Ġfaced": 6071,
      "Ġagents": 6072,
      "Ġdesire": 6073,
      "PU": 6074,
      "ĠBlue": 6075,
      "Ġlawyer": 6076,
      "Ġscheduled": 6077,
      "Ġlisted": 6078,
      "Ġsecretary": 6079,
      "Ġconsequences": 6080,
      "ĠST": 6081,
      "Ġargue": 6082,
      "top": 6083,
      "Ġresident": 6084,
      "iot": 6085,
      "Ġflo": 6086,
      "Ġyesterday": 6087,
      "ena": 6088,
      "duc": 6089,
      "Ġwalking": 6090,
      "orry": 6091,
      "Ġguilty": 6092,
      "ĠSee": 6093,
      "athan": 6094,
      "Ġmotor": 6095,
      "Ġcoff": 6096,
      "kay": 6097,
      "ĠRon": 6098,
      "Ġphilosoph": 6099,
      "Ġstorm": 6100,
      "Ġsurprised": 6101,
      "Ġroute": 6102,
      "Tube": 6103,
      "ouston": 6104,
      "ĠWhe": 6105,
      "Ġthoughts": 6106,
      "Ĥ¬": 6107,
      "enger": 6108,
      "Ġflag": 6109,
      "xual": 6110,
      "ĠFollow": 6111,
      "Ġbuildings": 6112,
      "Ġreceiving": 6113,
      "Ġinterpret": 6114,
      "evin": 6115,
      "Ġpatient": 6116,
      "ĠHuman": 6117,
      "ĠSystem": 6118,
      "Ġannouncement": 6119,
      "Ġwithd": 6120,
      "Ġdefault": 6121,
      "Ġtournament": 6122,
      "Ġsubsequ": 6123,
      "Ġskill": 6124,
      "Ġemp": 6125,
      "ĠMount": 6126,
      "Ġnations": 6127,
      "Ġeval": 6128,
      "Ġbare": 6129,
      "Ġing": 6130,
      "Ġadds": 6131,
      "Ġbug": 6132,
      "ĠAsia": 6133,
      "Ġdistribution": 6134,
      "ĠColumb": 6135,
      "Ġstores": 6136,
      "Ġlinked": 6137,
      "Ġsongs": 6138,
      "Ġenh": 6139,
      "IL": 6140,
      "Ġjoint": 6141,
      "ĠLife": 6142,
      "iat": 6143,
      "Ġcloud": 6144,
      "Ġpregn": 6145,
      "ooth": 6146,
      "Ġlibrary": 6147,
      "Ġabandon": 6148,
      "Ġspons": 6149,
      "Ġtree": 6150,
      "erences": 6151,
      "Ġscored": 6152,
      "Ġ300": 6153,
      "Ġdoctor": 6154,
      "Ġthinks": 6155,
      "Ġopponent": 6156,
      "Ġchart": 6157,
      "ĠPutin": 6158,
      "Ġfill": 6159,
      "abb": 6160,
      "Ġincor": 6161,
      "ĠÎ": 6162,
      "Follow": 6163,
      "ĠSign": 6164,
      "ÃŃ": 6165,
      "Ġpool": 6166,
      "you": 6167,
      "Ġrising": 6168,
      "Ġalt": 6169,
      "Ġconnected": 6170,
      "ellow": 6171,
      "Ġentered": 6172,
      "Ġimproved": 6173,
      "Ġaf": 6174,
      "Ġ33": 6175,
      "Ġactivists": 6176,
      "hetic": 6177,
      "ĠIreland": 6178,
      "etroit": 6179,
      "arre": 6180,
      "ĪĴ": 6181,
      "abin": 6182,
      "Ġbehavi": 6183,
      "estival": 6184,
      "Ġinjured": 6185,
      "Ġsquad": 6186,
      "ora": 6187,
      "ĠAv": 6188,
      "Ġexplan": 6189,
      "ĠSoviet": 6190,
      "Add": 6191,
      "Ġbag": 6192,
      "ĠExp": 6193,
      "Ñģ": 6194,
      "ĠKn": 6195,
      "Ġsym": 6196,
      "Ġperformed": 6197,
      "icing": 6198,
      "Ġfort": 6199,
      "Ġoffense": 6200,
      "Ġexistence": 6201,
      "greg": 6202,
      "iest": 6203,
      "Ġdogs": 6204,
      "twitter": 6205,
      "employ": 6206,
      "Ġresc": 6207,
      "Ġcauses": 6208,
      "ĠGrand": 6209,
      "ocratic": 6210,
      "ideo": 6211,
      "Ġinjuries": 6212,
      "Ġpure": 6213,
      "stood": 6214,
      "usal": 6215,
      "Ġrepresents": 6216,
      "Ġpractices": 6217,
      "uy": 6218,
      "essor": 6219,
      "Ġsuc": 6220,
      "Ġplane": 6221,
      "Ġmaterials": 6222,
      "acter": 6223,
      "Ġpra": 6224,
      "Ġrein": 6225,
      "illance": 6226,
      "86": 6227,
      "whel": 6228,
      "Ġchain": 6229,
      "Ġexpansion": 6230,
      "Ġtargets": 6231,
      "Ġ2002": 6232,
      "Ġbrings": 6233,
      "Ġhistorical": 6234,
      "FP": 6235,
      "ĠEach": 6236,
      "ĠScience": 6237,
      "Ġrail": 6238,
      "Ġclassic": 6239,
      "Ġtotally": 6240,
      "ller": 6241,
      "illy": 6242,
      "Ġexercise": 6243,
      "Ġmyster": 6244,
      "Ġartist": 6245,
      "Ġdiscussed": 6246,
      "allas": 6247,
      "Ġsam": 6248,
      "Ġshots": 6249,
      "Ġinvestors": 6250,
      "Ġdemocracy": 6251,
      "ĠID": 6252,
      "Ġstood": 6253,
      "Ġentry": 6254,
      "Ġincreases": 6255,
      "Ġradical": 6256,
      "Ġwarm": 6257,
      "Ġexamples": 6258,
      "ko": 6259,
      "Ġalcohol": 6260,
      "Ġblow": 6261,
      "hips": 6262,
      "Ġobjects": 6263,
      "law": 6264,
      "Ġbutton": 6265,
      "Ġhoping": 6266,
      "Then": 6267,
      "ĠBack": 6268,
      "Ġthreats": 6269,
      "Ġcere": 6270,
      "Ġnative": 6271,
      "oked": 6272,
      "Ġresolution": 6273,
      "Ġbright": 6274,
      "ĠMs": 6275,
      "Ġhat": 6276,
      "Ġbegins": 6277,
      "ĠIN": 6278,
      "Ġcorrespond": 6279,
      "ĠGen": 6280,
      "ĠVict": 6281,
      "Ġclasses": 6282,
      "ĠRev": 6283,
      "Ġmoves": 6284,
      "Ġpushed": 6285,
      "Ġsplit": 6286,
      "mes": 6287,
      "ala": 6288,
      "Ġremark": 6289,
      "Ġnetworks": 6290,
      "ĠStr": 6291,
      "ĠSwed": 6292,
      "Man": 6293,
      "asure": 6294,
      "ĠML": 6295,
      "Ġplayoff": 6296,
      "Ġbike": 6297,
      "Ġphen": 6298,
      "def": 6299,
      "Ġreplaced": 6300,
      "Ġallegedly": 6301,
      "Ġcrazy": 6302,
      "Ġlie": 6303,
      "Ġrum": 6304,
      "Ġheavily": 6305,
      "76": 6306,
      "rip": 6307,
      "Ġpip": 6308,
      "ĠTra": 6309,
      "Ġcolleagues": 6310,
      "ĠKim": 6311,
      "________________": 6312,
      "Ġmir": 6313,
      "Ġdoctors": 6314,
      "Ġrelevant": 6315,
      "Ġmotion": 6316,
      "Ġconsumer": 6317,
      "word": 6318,
      "Ġsick": 6319,
      "Ġlock": 6320,
      "ĠDevelop": 6321,
      "Ġvolunte": 6322,
      "ĠWork": 6323,
      "oys": 6324,
      "ĠCNN": 6325,
      "ĠOnly": 6326,
      "cho": 6327,
      "Ġconsistent": 6328,
      "Ġfairly": 6329,
      "ĠBrazil": 6330,
      "Ġadvanced": 6331,
      "Ġholds": 6332,
      "Ġmanufacture": 6333,
      "Ġexpression": 6334,
      "06": 6335,
      "Ġfollows": 6336,
      "Ġprotests": 6337,
      "Ġrape": 6338,
      "ĠImage": 6339,
      "Ġfeatured": 6340,
      "comm": 6341,
      "Ġfavour": 6342,
      "Ġunlikely": 6343,
      "ockey": 6344,
      "orders": 6345,
      "Ġcampus": 6346,
      "ĠPlan": 6347,
      "ette": 6348,
      "ĠRights": 6349,
      "ician": 6350,
      "ĠWatch": 6351,
      "ENT": 6352,
      "Ġdatab": 6353,
      "Ġsucceed": 6354,
      "omin": 6355,
      "aza": 6356,
      "Ġbon": 6357,
      "Ð¾Ð": 6358,
      "Ġimportance": 6359,
      "ĠISIS": 6360,
      "Ġsought": 6361,
      "ĠPrem": 6362,
      "Ġparliament": 6363,
      "Ġsquare": 6364,
      "Ġlaugh": 6365,
      "Ġvari": 6366,
      "ĠCatholic": 6367,
      "See": 6368,
      "Ġbat": 6369,
      "OD": 6370,
      "Ġ48": 6371,
      "ollywood": 6372,
      "Ġroughly": 6373,
      "Ġatmosp": 6374,
      "kel": 6375,
      "Ġyounger": 6376,
      "Ġclosely": 6377,
      "08": 6378,
      "otal": 6379,
      "Ġguns": 6380,
      "ĠCIA": 6381,
      "ador": 6382,
      "Ġregulations": 6383,
      "ĠValley": 6384,
      "ĠDan": 6385,
      "rich": 6386,
      "ĠWild": 6387,
      "fortunately": 6388,
      "Ġrally": 6389,
      "Ġsees": 6390,
      "Ġshif": 6391,
      "Ġheads": 6392,
      "ĠNBA": 6393,
      "Ġfacility": 6394,
      "alty": 6395,
      "acc": 6396,
      "ĠSher": 6397,
      "Ġdeaths": 6398,
      "FA": 6399,
      "ceived": 6400,
      "ĠAnother": 6401,
      "ĠLong": 6402,
      "Ġnav": 6403,
      "Ġboys": 6404,
      "Pol": 6405,
      "Ġcombination": 6406,
      "andal": 6407,
      "Ġathlet": 6408,
      "Ġflood": 6409,
      "ĠKorean": 6410,
      "ĠAff": 6411,
      "Ġprohib": 6412,
      "Ob": 6413,
      "Ġbuying": 6414,
      "Ġlawsuit": 6415,
      "Ġcheap": 6416,
      "Ġrestaurant": 6417,
      "ĠiPhone": 6418,
      "ĠYear": 6419,
      "Ġstudio": 6420,
      "ĠArizona": 6421,
      "Ã³": 6422,
      "ĠSecond": 6423,
      "Ġacts": 6424,
      "Ġ49": 6425,
      "78": 6426,
      "ĠHist": 6427,
      "ologist": 6428,
      "ĠKenn": 6429,
      "Ġwins": 6430,
      "Ġformed": 6431,
      "ĠMot": 6432,
      "nic": 6433,
      "Â·": 6434,
      "iques": 6435,
      "ĠSky": 6436,
      "ĠClub": 6437,
      "Ġbreaking": 6438,
      "Ġmine": 6439,
      "Ġcreative": 6440,
      "Ġlinks": 6441,
      "Ġimmediate": 6442,
      "pan": 6443,
      "Most": 6444,
      "chen": 6445,
      "ĠSeattle": 6446,
      "Ġacknowled": 6447,
      "utation": 6448,
      "ĠBarack": 6449,
      "Ġtemperature": 6450,
      "Ġsister": 6451,
      "Ġride": 6452,
      "Ġdownt": 6453,
      "Ġmonit": 6454,
      "ĠNY": 6455,
      "Ġmanage": 6456,
      "iami": 6457,
      "Ġtransp": 6458,
      "Ġvice": 6459,
      "Ġconfront": 6460,
      "Ġnarr": 6461,
      "Ġmeat": 6462,
      "oming": 6463,
      "Ġsentence": 6464,
      "ometimes": 6465,
      "oma": 6466,
      "Ġexcellent": 6467,
      "phy": 6468,
      "En": 6469,
      "Ġessential": 6470,
      "Ġtow": 6471,
      "active": 6472,
      "Ġsubsid": 6473,
      "Ġanywhere": 6474,
      "uable": 6475,
      "Ġhardware": 6476,
      "Ġfewer": 6477,
      "ĠWik": 6478,
      "ĠHouston": 6479,
      "ĠRus": 6480,
      "Ġconfig": 6481,
      "IR": 6482,
      "Ġsymbol": 6483,
      "ORE": 6484,
      "ĠWars": 6485,
      "ĠIts": 6486,
      "Ġmoments": 6487,
      "ican": 6488,
      "Ġdecline": 6489,
      "ĠWomen": 6490,
      "ĠMaybe": 6491,
      "Ġguide": 6492,
      "Ġfrequently": 6493,
      "Ġdivision": 6494,
      "Ġbattery": 6495,
      "Ġtiny": 6496,
      "Ġfashion": 6497,
      "Ġpled": 6498,
      "Ġunus": 6499,
      "Ġregional": 6500,
      "ĠConstitution": 6501,
      "game": 6502,
      "Ġempt": 6503,
      "name": 6504,
      "Ġsav": 6505,
      "Ġhotel": 6506,
      "Ġcommitment": 6507,
      "Ġextent": 6508,
      "Ġhousehold": 6509,
      "Ġdu": 6510,
      "300": 6511,
      "Ġpromise": 6512,
      "alian": 6513,
      "ĠJoseph": 6514,
      "02": 6515,
      "07": 6516,
      "Ġcurrency": 6517,
      "ellect": 6518,
      "Ġearned": 6519,
      "ĠKen": 6520,
      "Ġkinds": 6521,
      "Ġfraud": 6522,
      "Ġwave": 6523,
      "Ġsigning": 6524,
      "chers": 6525,
      "ocket": 6526,
      "Ġcustomer": 6527,
      "born": 6528,
      "Ġisol": 6529,
      "onna": 6530,
      "Ġalongside": 6531,
      "friend": 6532,
      "iro": 6533,
      "Ġopposite": 6534,
      "erves": 6535,
      "Ġadults": 6536,
      "tle": 6537,
      "Ġoutput": 6538,
      "luding": 6539,
      "ĠDie": 6540,
      "Ġdefined": 6541,
      "Ġversions": 6542,
      "Ġinstru": 6543,
      "Ġtrick": 6544,
      "ĠYoung": 6545,
      "Ġsand": 6546,
      "opy": 6547,
      "ĠTO": 6548,
      "Ġsnow": 6549,
      "stone": 6550,
      "ĠAT": 6551,
      "Ġintention": 6552,
      "ĠSar": 6553,
      "ĠKansas": 6554,
      "iously": 6555,
      "Ġwarning": 6556,
      "ĠIP": 6557,
      "ĠAnn": 6558,
      "Ġindustrial": 6559,
      "Ġcycle": 6560,
      "Ġbasket": 6561,
      "Ġgrown": 6562,
      "utch": 6563,
      "ĠLord": 6564,
      "Ġlies": 6565,
      "cow": 6566,
      "ĠMiller": 6567,
      "ĠDetroit": 6568,
      "Ġsharing": 6569,
      "ĠElect": 6570,
      "Ġcarrying": 6571,
      "ĠDi": 6572,
      "ĠYouTube": 6573,
      "bel": 6574,
      "foot": 6575,
      "hus": 6576,
      "ulous": 6577,
      "Ġstream": 6578,
      "post": 6579,
      "ĠRam": 6580,
      "ĠAut": 6581,
      "Ġstorage": 6582,
      "Ġsomewhat": 6583,
      "Ġremote": 6584,
      "Ġreferred": 6585,
      "Ġschedule": 6586,
      "DS": 6587,
      "inem": 6588,
      "Ġcircumstances": 6589,
      "Despite": 6590,
      "Ġupcoming": 6591,
      "Ġharder": 6592,
      "Ġmechanism": 6593,
      "People": 6594,
      "Ġembr": 6595,
      "rison": 6596,
      "Ġauthors": 6597,
      "ums": 6598,
      "raham": 6599,
      "ĠSupp": 6600,
      "atell": 6601,
      "Ġ34": 6602,
      "Ġemotional": 6603,
      "Ġmouth": 6604,
      "ĠDev": 6605,
      "Ġcomfortable": 6606,
      "ĠHome": 6607,
      "Ġschol": 6608,
      "olve": 6609,
      "rence": 6610,
      "efully": 6611,
      "Ġexhib": 6612,
      "Ġancient": 6613,
      "lls": 6614,
      "Ġdescribe": 6615,
      "Ġpushing": 6616,
      "Ġisland": 6617,
      "nam": 6618,
      "ĠOld": 6619,
      "ĠBoard": 6620,
      "ÑĢ": 6621,
      "arry": 6622,
      "Ġstrange": 6623,
      "amily": 6624,
      "Ġopponents": 6625,
      "Ġmarketing": 6626,
      "VER": 6627,
      "obb": 6628,
      "Ġdepth": 6629,
      "Ġinput": 6630,
      "ĠCard": 6631,
      "certain": 6632,
      "ĠEric": 6633,
      "Ġsky": 6634,
      "Ġsuffering": 6635,
      "ĠMen": 6636,
      "ĠEr": 6637,
      "print": 6638,
      "Ġwire": 6639,
      "Ġfixed": 6640,
      "Ġdetailed": 6641,
      "Ġtom": 6642,
      "sters": 6643,
      "Ġteachers": 6644,
      "ati": 6645,
      "Ġforth": 6646,
      "Ġevolution": 6647,
      "Ġinvolving": 6648,
      "Ġfunctions": 6649,
      "Ġzero": 6650,
      "Ġrequirements": 6651,
      "Ġmatches": 6652,
      "Ġupdated": 6653,
      "ĠGames": 6654,
      "Ġ38": 6655,
      "ĠEnergy": 6656,
      "Ġchannel": 6657,
      "Ġliterally": 6658,
      "04": 6659,
      "OC": 6660,
      "Ġwaste": 6661,
      "ensus": 6662,
      "ĠStephen": 6663,
      "Ġnewslet": 6664,
      "ĠMic": 6665,
      "Ġefficient": 6666,
      "Ġdedicated": 6667,
      "ĠNHL": 6668,
      "ordan": 6669,
      "Ġretire": 6670,
      "NC": 6671,
      "ĠKey": 6672,
      "west": 6673,
      "ayers": 6674,
      "ipl": 6675,
      "weight": 6676,
      "ĠWalk": 6677,
      "iveness": 6678,
      "Two": 6679,
      "Ġstring": 6680,
      "ĠPalestinian": 6681,
      "Ġring": 6682,
      "Ġinspired": 6683,
      "Ġfolks": 6684,
      "Ġassets": 6685,
      "Ġmetal": 6686,
      "Like": 6687,
      "Ġliqu": 6688,
      "ĠCy": 6689,
      "Ġacting": 6690,
      "Per": 6691,
      "ĠRight": 6692,
      "Ġusual": 6693,
      "Ġrelationships": 6694,
      "Ġfundamental": 6695,
      "Ġattempted": 6696,
      "ĠFort": 6697,
      "ĠChild": 6698,
      "ĠColorado": 6699,
      "Ġdealing": 6700,
      "Ġextended": 6701,
      "regon": 6702,
      "Ġmanner": 6703,
      "Ġprotected": 6704,
      "Ġlatter": 6705,
      "Ġrepeatedly": 6706,
      "Ġgod": 6707,
      "ogan": 6708,
      "Ġpassion": 6709,
      "iciency": 6710,
      "Ġexciting": 6711,
      "Ã¤": 6712,
      "ĠArch": 6713,
      "ĠPolit": 6714,
      "ĠEconom": 6715,
      "Ġcontroversial": 6716,
      "Ġjourney": 6717,
      "Ġking": 6718,
      "Ġposts": 6719,
      "</": 6720,
      "ĠVan": 6721,
      "Ġscheme": 6722,
      "Ġdry": 6723,
      "Ġprecise": 6724,
      "Ġrefugees": 6725,
      "ĠJesus": 6726,
      "avor": 6727,
      "++": 6728,
      "rors": 6729,
      "igg": 6730,
      "ĠHol": 6731,
      "Ġanyway": 6732,
      "Ġselected": 6733,
      "ĠJr": 6734,
      "ĠLu": 6735,
      "Ġbid": 6736,
      "ĠDallas": 6737,
      "Ġparticipants": 6738,
      "Ġstruck": 6739,
      "ĠCamer": 6740,
      "adel": 6741,
      "Ġsurrounding": 6742,
      "Ġoverwhel": 6743,
      "Ġjournalists": 6744,
      "Ġrealized": 6745,
      "Ġchose": 6746,
      "Ġartists": 6747,
      "Ġcausing": 6748,
      "Ġconver": 6749,
      "Ġbear": 6750,
      "Ġwalked": 6751,
      "Ġwatched": 6752,
      "Ġwal": 6753,
      "ĠCub": 6754,
      "Ġ37": 6755,
      "woman": 6756,
      "iger": 6757,
      "Ġkit": 6758,
      "ĠPan": 6759,
      "ref": 6760,
      "pool": 6761,
      "Ġimpressive": 6762,
      "Ġsyn": 6763,
      "ĠCross": 6764,
      "Ġintent": 6765,
      "Ġcompetitive": 6766,
      "ĠSociety": 6767,
      "oration": 6768,
      "Ġdiet": 6769,
      "Ġblame": 6770,
      "AA": 6771,
      "ingu": 6772,
      "aylor": 6773,
      "ĠItaly": 6774,
      "Ġsending": 6775,
      "Ġchairman": 6776,
      "intend": 6777,
      "Ð½": 6778,
      "ĠMiami": 6779,
      "Ġdeeply": 6780,
      "Ġnorthern": 6781,
      "ĠAdam": 6782,
      "Ġtermin": 6783,
      "Ġrisks": 6784,
      "Ġsample": 6785,
      "chain": 6786,
      "Ġgang": 6787,
      "Ġagenda": 6788,
      "May": 6789,
      "Ġteacher": 6790,
      "Ġelectricity": 6791,
      "ĠJava": 6792,
      "aze": 6793,
      "abis": 6794,
      "Ġalive": 6795,
      "ml": 6796,
      "Ġmob": 6797,
      "Ġcert": 6798,
      "Ġproperly": 6799,
      "redit": 6800,
      "Ġapproval": 6801,
      "Ġpromote": 6802,
      "ĠFord": 6803,
      "%)": 6804,
      "ĠAC": 6805,
      "Ġmainstream": 6806,
      "ĠDavis": 6807,
      "zy": 6808,
      "ĠDiv": 6809,
      "Ġserving": 6810,
      "Ġcontrolled": 6811,
      "Ġlicense": 6812,
      "ulture": 6813,
      "Ġtort": 6814,
      "ĠGall": 6815,
      "Ġprote": 6816,
      "Ġeating": 6817,
      "Ġreturns": 6818,
      "utral": 6819,
      "Ġattacked": 6820,
      "Ġsurveillance": 6821,
      "mo": 6822,
      "Ġsoul": 6823,
      "Ġfranchise": 6824,
      "Ġowned": 6825,
      "Ġfacilities": 6826,
      "Ġapproximately": 6827,
      "Ġtruck": 6828,
      "Ġuncle": 6829,
      "Ġcondem": 6830,
      "Ġimmigrants": 6831,
      "ni": 6832,
      "anges": 6833,
      "Ġhonor": 6834,
      "ĠEll": 6835,
      "Ġsweet": 6836,
      "Ġupper": 6837,
      "xy": 6838,
      "alle": 6839,
      "ĠAgain": 6840,
      "03": 6841,
      "Ġflex": 6842,
      "Ġ75": 6843,
      "ĠCharles": 6844,
      "Ġallies": 6845,
      "Ġmoder": 6846,
      "Or": 6847,
      "Te": 6848,
      "ĠHollywood": 6849,
      "Ġdisag": 6850,
      "Ġknowing": 6851,
      "Ġflu": 6852,
      "ugh": 6853,
      "Ġhur": 6854,
      "Ġdiagn": 6855,
      "da": 6856,
      "Ġfasc": 6857,
      "Ġpurposes": 6858,
      "Ġnarrow": 6859,
      "fire": 6860,
      "ĠFar": 6861,
      "azi": 6862,
      "ĠHenry": 6863,
      "ĠTit": 6864,
      "Ġsho": 6865,
      "ĠEnter": 6866,
      "Ġrecognize": 6867,
      "owered": 6868,
      "Ġequival": 6869,
      "rive": 6870,
      "Ġharass": 6871,
      "Ġ1970": 6872,
      "Ġadapt": 6873,
      "Ġcritics": 6874,
      "bar": 6875,
      "ĠWat": 6876,
      "ĠWay": 6877,
      "ographic": 6878,
      "acking": 6879,
      "Ġcongress": 6880,
      "lv": 6881,
      "lete": 6882,
      "alo": 6883,
      "Ġegg": 6884,
      "gery": 6885,
      "Ġmistake": 6886,
      "Ġaside": 6887,
      "Ġcrash": 6888,
      "burg": 6889,
      "Ġunknown": 6890,
      "Ġcommunication": 6891,
      "ĠCarl": 6892,
      "ĠDefense": 6893,
      "Ġdeck": 6894,
      "Ġsimpl": 6895,
      "ĠLove": 6896,
      "Ġwinter": 6897,
      "ĠGeorgia": 6898,
      "ĠMax": 6899,
      "ĠWilson": 6900,
      "Ġbunch": 6901,
      "list": 6902,
      "aser": 6903,
      "Ġrub": 6904,
      "ĠDam": 6905,
      "Ġwake": 6906,
      "Ġterritory": 6907,
      "Ġlocations": 6908,
      "ĠTal": 6909,
      "Ġwelcome": 6910,
      "ĠLand": 6911,
      "98": 6912,
      "96": 6913,
      "gor": 6914,
      "Ġtargeted": 6915,
      "han": 6916,
      "ĠFil": 6917,
      "umber": 6918,
      "Ġsustain": 6919,
      "Ġdeals": 6920,
      "Ġworried": 6921,
      "Ġdefeat": 6922,
      "uated": 6923,
      "Ġunderstood": 6924,
      "Ġarguments": 6925,
      "dis": 6926,
      "Ġpromised": 6927,
      "ĠThank": 6928,
      "Ġofficially": 6929,
      "Ġtopic": 6930,
      "era": 6931,
      "Ġwinner": 6932,
      "Ġfees": 6933,
      "ĠCast": 6934,
      "nesota": 6935,
      "ĠDun": 6936,
      "Ġassume": 6937,
      "ua": 6938,
      "Ġhall": 6939,
      "Ġphenomen": 6940,
      "Ġtypical": 6941,
      "Ġevil": 6942,
      "iments": 6943,
      "Ġchosen": 6944,
      "itar": 6945,
      "Ġsomebody": 6946,
      "Ġmedic": 6947,
      "----------------": 6948,
      "fast": 6949,
      "Ġicon": 6950,
      "Ġoblig": 6951,
      "Ġillustr": 6952,
      "Ġlikes": 6953,
      "Ġselection": 6954,
      "Ġvolume": 6955,
      "Ġputs": 6956,
      "Ġmilk": 6957,
      "ĠAcadem": 6958,
      "Ã¶": 6959,
      "ether": 6960,
      "Ġhyd": 6961,
      "Ġretain": 6962,
      "Ġslowly": 6963,
      "Ġreward": 6964,
      "iform": 6965,
      "ĠDisney": 6966,
      "anes": 6967,
      "asters": 6968,
      "awa": 6969,
      "Ġpolls": 6970,
      "Ġdirected": 6971,
      "',": 6972,
      "Ġdiscover": 6973,
      "ĠBrad": 6974,
      "itarian": 6975,
      "Ġexposed": 6976,
      "John": 6977,
      "ĠDaniel": 6978,
      "Ġfalling": 6979,
      "Ġnoticed": 6980,
      "Ġphase": 6981,
      "Ġurban": 6982,
      "ciples": 6983,
      "ĠStand": 6984,
      "Ġtested": 6985,
      "Ġobserved": 6986,
      "Ġprotesters": 6987,
      "Ã¼": 6988,
      "raid": 6989,
      "Ġped": 6990,
      "Ġsuicide": 6991,
      "esc": 6992,
      "Ġstim": 6993,
      "Ġencourage": 6994,
      "wan": 6995,
      "ĠOF": 6996,
      "Ġgap": 6997,
      "Ġmaximum": 6998,
      "ĠDespite": 6999,
      "57": 7000,
      "Ġterrorism": 7001,
      "Rel": 7002,
      "ĠPR": 7003,
      "ura": 7004,
      "Ġchampion": 7005,
      "ocation": 7006,
      "Ġescape": 7007,
      "Ġstrongly": 7008,
      "Ġgotten": 7009,
      "ĠSC": 7010,
      "Ġseats": 7011,
      "ĠTurk": 7012,
      "Ġdress": 7013,
      "ĠLight": 7014,
      "ĠScotland": 7015,
      "Ġincl": 7016,
      "Ġprofit": 7017,
      "Ġrequests": 7018,
      "gas": 7019,
      "Ġactor": 7020,
      "Ġdestroyed": 7021,
      "ĠCruz": 7022,
      "Ġhits": 7023,
      "Ġreasonable": 7024,
      "ads": 7025,
      "gender": 7026,
      "56": 7027,
      "Ġsole": 7028,
      "Ġmerely": 7029,
      "ĠBell": 7030,
      "ĠNASA": 7031,
      "ĠOregon": 7032,
      "ĠChampionship": 7033,
      "Ġuniverse": 7034,
      "lies": 7035,
      "ĠMoore": 7036,
      "Ġsomehow": 7037,
      "uilding": 7038,
      "ĠCompany": 7039,
      "Ġvillage": 7040,
      "ĠMoscow": 7041,
      "onymous": 7042,
      "oric": 7043,
      "Ġfighters": 7044,
      "ĠDown": 7045,
      "iner": 7046,
      "icken": 7047,
      "Ġfifth": 7048,
      "Ġ1999": 7049,
      "Ġenemies": 7050,
      "zens": 7051,
      "ĠIns": 7052,
      "Ġlimits": 7053,
      "Ġbrew": 7054,
      "Ġdefinition": 7055,
      "âĢĻ.": 7056,
      "Ġpersonally": 7057,
      "Ġfuck": 7058,
      "Ġprofile": 7059,
      "inations": 7060,
      "Ġsouthern": 7061,
      "owed": 7062,
      "earing": 7063,
      "ĠRoman": 7064,
      "Any": 7065,
      "Ġmurd": 7066,
      "ĠAdministr": 7067,
      "Ġsomewhere": 7068,
      "rary": 7069,
      "Ġpal": 7070,
      "Ġorders": 7071,
      "Ġoutcome": 7072,
      "Ġideal": 7073,
      "Ġobtained": 7074,
      "inson": 7075,
      "Ġhouses": 7076,
      "Me": 7077,
      "Ġinqu": 7078,
      "osis": 7079,
      "ĠCle": 7080,
      "Ġexplore": 7081,
      "iscons": 7082,
      "Ġproof": 7083,
      "Ġeast": 7084,
      "Fr": 7085,
      "Ġcoffee": 7086,
      "isconsin": 7087,
      "arity": 7088,
      "Ġemployee": 7089,
      "ixt": 7090,
      "ĠBat": 7091,
      "Co": 7092,
      "style": 7093,
      "ĠSea": 7094,
      "aug": 7095,
      "Ġconcluded": 7096,
      "ĠESP": 7097,
      "Ġpayment": 7098,
      "ĠThough": 7099,
      "58": 7100,
      "Ġdesper": 7101,
      "Ġvacc": 7102,
      "Ġthreatened": 7103,
      "Int": 7104,
      "Ġtied": 7105,
      "Ġsight": 7106,
      "Ġwage": 7107,
      "oria": 7108,
      "ĠSouthern": 7109,
      "Ġwest": 7110,
      "ĠJersey": 7111,
      "Ġdecent": 7112,
      "Ġproperties": 7113,
      "Ġrejected": 7114,
      "Ġworldwide": 7115,
      "Ġconstit": 7116,
      "cers": 7117,
      "Ġmayor": 7118,
      "Ġstronger": 7119,
      "Ġdrawn": 7120,
      "Ġrival": 7121,
      "ĠHun": 7122,
      "Ġintellect": 7123,
      "Ġdesk": 7124,
      "Ġelsewhere": 7125,
      "Ġtechnologies": 7126,
      "verty": 7127,
      "rypt": 7128,
      "ensity": 7129,
      "ker": 7130,
      "Ġdozen": 7131,
      "pected": 7132,
      "Ġcolon": 7133,
      "Sec": 7134,
      "Ġpic": 7135,
      "ta": 7136,
      "celer": 7137,
      "Ġempty": 7138,
      "ĠNations": 7139,
      "Ġcaptured": 7140,
      "59": 7141,
      "Ġreporter": 7142,
      "ĠReal": 7143,
      "GBT": 7144,
      "inding": 7145,
      "dit": 7146,
      "Ġpaint": 7147,
      "Ġanswers": 7148,
      "Ġregions": 7149,
      "Ġchoices": 7150,
      "ĠKevin": 7151,
      "Ġemissions": 7152,
      "ĠNetwork": 7153,
      "Ġnomine": 7154,
      "Ġvirtual": 7155,
      "Ġpurs": 7156,
      "axy": 7157,
      "ĠSpain": 7158,
      "pes": 7159,
      "ras": 7160,
      "ĠSpanish": 7161,
      "Ġ=>": 7162,
      "Ġties": 7163,
      "Ġprovince": 7164,
      "po": 7165,
      "ĠCD": 7166,
      "Ġpoverty": 7167,
      "Ġreveal": 7168,
      "asks": 7169,
      "Ġheight": 7170,
      "Ġtheme": 7171,
      "ĠViet": 7172,
      ".\"[": 7173,
      "Ġcomparison": 7174,
      "ĠBas": 7175,
      "asts": 7176,
      "Ġsupports": 7177,
      "Ġregularly": 7178,
      "mont": 7179,
      "Ġfold": 7180,
      "ems": 7181,
      "Ġtrading": 7182,
      "ĠIrish": 7183,
      "Ġestate": 7184,
      "Ġperfectly": 7185,
      "Ġawesome": 7186,
      "Ġformat": 7187,
      "400": 7188,
      "Ġdeleg": 7189,
      "ĠJordan": 7190,
      "ĠPay": 7191,
      "ĠEduc": 7192,
      "Ġshel": 7193,
      "Ġpayments": 7194,
      "apse": 7195,
      "Ġconstant": 7196,
      "Ġnarrative": 7197,
      "Ġapartment": 7198,
      "Ġcontem": 7199,
      "oster": 7200,
      "ĠArm": 7201,
      "Ġamounts": 7202,
      "Ġassistant": 7203,
      "NE": 7204,
      "ĠZeal": 7205,
      "Ġ%": 7206,
      "Ġcommunications": 7207,
      "Ġbaseball": 7208,
      "Ġstuck": 7209,
      "ĠAttorney": 7210,
      "ĠMoh": 7211,
      "Ġbench": 7212,
      "Ġsuddenly": 7213,
      "Ġaggressive": 7214,
      "Ġpermanent": 7215,
      "Ġfounder": 7216,
      "unning": 7217,
      "Ġterrible": 7218,
      "ĠAgency": 7219,
      "Ġdriven": 7220,
      "apes": 7221,
      "Ġcontributed": 7222,
      "Ġenthus": 7223,
      "Ġcategory": 7224,
      "Ġdrag": 7225,
      "Ġprominent": 7226,
      "Ġweird": 7227,
      "Ġgoods": 7228,
      "Ġresulting": 7229,
      "anny": 7230,
      "ĠMinnesota": 7231,
      "Ġaccurate": 7232,
      "Ġble": 7233,
      "Ġextensive": 7234,
      "ĠAsian": 7235,
      "Also": 7236,
      "Ġunemploy": 7237,
      "Ġwid": 7238,
      "ĠBowl": 7239,
      "ĠLabor": 7240,
      "ĠOk": 7241,
      "Ġangry": 7242,
      "enders": 7243,
      "Ġwriters": 7244,
      "Ġdistinct": 7245,
      "ba": 7246,
      "ĠFre": 7247,
      "Ġmeetings": 7248,
      "Ġspin": 7249,
      "Ġtitles": 7250,
      "Ġtrees": 7251,
      "Ġdatabase": 7252,
      "ali": 7253,
      "ĠBull": 7254,
      "sex": 7255,
      "Ġconstantly": 7256,
      "otes": 7257,
      "Ġgenerate": 7258,
      "Ġsituations": 7259,
      "Ġcomprom": 7260,
      "Ġcourts": 7261,
      "Ġsympt": 7262,
      "ashes": 7263,
      "ĠDark": 7264,
      "Ġanymore": 7265,
      "ĠTurn": 7266,
      "Ġconscious": 7267,
      "Ġincredible": 7268,
      "ca": 7269,
      "cript": 7270,
      "Ġclaiming": 7271,
      "Ġincredibly": 7272,
      "SC": 7273,
      "Ġinstitution": 7274,
      "ĠUt": 7275,
      "Ġunp": 7276,
      "Ġinformed": 7277,
      "ĠRussell": 7278,
      "otten": 7279,
      "Ġrig": 7280,
      "Ġparking": 7281,
      "ĠParliament": 7282,
      "Ġvaluable": 7283,
      "Ġhel": 7284,
      "Ne": 7285,
      "Ġprimarily": 7286,
      "Ġcompens": 7287,
      "Ġrecon": 7288,
      "Ġcutting": 7289,
      "Inst": 7290,
      "Ġaspects": 7291,
      "ĠESPN": 7292,
      "irms": 7293,
      "ĠVol": 7294,
      "Ġreputation": 7295,
      "rimination": 7296,
      "sm": 7297,
      "Ġestimates": 7298,
      "Police": 7299,
      "izon": 7300,
      "imp": 7301,
      "ĠCam": 7302,
      "Ġboot": 7303,
      "Ġproved": 7304,
      "Ġinnoc": 7305,
      "from": 7306,
      "Ġticket": 7307,
      "Ġnobody": 7308,
      "ĠBrian": 7309,
      "ĠEnd": 7310,
      "Ġroster": 7311,
      "Ġsignal": 7312,
      "ĠHo": 7313,
      "Ġestablish": 7314,
      "sea": 7315,
      "Ġconsumption": 7316,
      "ĠMars": 7317,
      "rage": 7318,
      "Ġtaught": 7319,
      "ĠFour": 7320,
      "igation": 7321,
      "lder": 7322,
      "ĠContin": 7323,
      "Ġstretch": 7324,
      "ship": 7325,
      "Ġanx": 7326,
      "Ġconven": 7327,
      "Ġraising": 7328,
      "Ġdeveloper": 7329,
      "cr": 7330,
      "eda": 7331,
      "izz": 7332,
      "Ġflying": 7333,
      "Ġfunny": 7334,
      "Ġnegotiations": 7335,
      "ĠDNA": 7336,
      "ĠWin": 7337,
      "MP": 7338,
      "Ġmyth": 7339,
      "Once": 7340,
      "ifer": 7341,
      "Ġcoalition": 7342,
      "Ġthread": 7343,
      "Ġnewly": 7344,
      "Ġcontinuing": 7345,
      "Ġcomplicated": 7346,
      "ĠSeries": 7347,
      "ĠServices": 7348,
      "isan": 7349,
      "ĠBest": 7350,
      "Ġending": 7351,
      "Ġmixed": 7352,
      "Ġagric": 7353,
      "Ġinfect": 7354,
      "ilarly": 7355,
      "Ġkil": 7356,
      "essed": 7357,
      "ĠDead": 7358,
      "Ġruled": 7359,
      "owa": 7360,
      "Ġrus": 7361,
      "Ġresistance": 7362,
      "Ġhabit": 7363,
      "ĠNick": 7364,
      "Ġfinds": 7365,
      "ĠZealand": 7366,
      "ĠLew": 7367,
      "ifications": 7368,
      "Ġcomic": 7369,
      "Ġ39": 7370,
      "Ġkeeps": 7371,
      "Ġfields": 7372,
      "anchester": 7373,
      "uine": 7374,
      "vy": 7375,
      "ĠId": 7376,
      "abama": 7377,
      "thew": 7378,
      "Ġbitcoin": 7379,
      "Ġencoun": 7380,
      "Ġorganized": 7381,
      "Ġunw": 7382,
      "Ġoverse": 7383,
      "Ġemployment": 7384,
      "ĠItalian": 7385,
      "cription": 7386,
      "ĠInf": 7387,
      "Ġmarked": 7388,
      "UR": 7389,
      "aire": 7390,
      "bal": 7391,
      "eping": 7392,
      "Ġcomplaint": 7393,
      "Ġatmosphere": 7394,
      "Because": 7395,
      "acked": 7396,
      "Ġstead": 7397,
      "ĠEp": 7398,
      "ĠOrgan": 7399,
      "lock": 7400,
      "Ġsolutions": 7401,
      "everal": 7402,
      "Ġdegrees": 7403,
      "mal": 7404,
      "ĠCivil": 7405,
      "ĠNight": 7406,
      "Ġinstalled": 7407,
      "2014": 7408,
      "igure": 7409,
      "Ġelite": 7410,
      "Ġaudio": 7411,
      "ĠPS": 7412,
      "Ġpilot": 7413,
      "ĠView": 7414,
      "there": 7415,
      "Ġautomatically": 7416,
      "Ġexcess": 7417,
      "Ġloan": 7418,
      "Ġmachines": 7419,
      "Ġgro": 7420,
      "Ġroutine": 7421,
      "ĠEastern": 7422,
      "67": 7423,
      "Today": 7424,
      "iana": 7425,
      "ogen": 7426,
      "Ġreturning": 7427,
      "Ġsufficient": 7428,
      "lers": 7429,
      "ĠHospital": 7430,
      "aturally": 7431,
      "Ġlanguages": 7432,
      "Ġconclusion": 7433,
      "rep": 7434,
      "Ġhidden": 7435,
      "Ġmanip": 7436,
      "Ġattended": 7437,
      "Ġapolog": 7438,
      "Ġscenes": 7439,
      "Ġdefence": 7440,
      "ĠForeign": 7441,
      "HS": 7442,
      "inder": 7443,
      "ĠCat": 7444,
      "Ġadopted": 7445,
      "Ġdrinking": 7446,
      "ĠHot": 7447,
      "Ġpropag": 7448,
      "bro": 7449,
      "Ġgift": 7450,
      "Ġcapture": 7451,
      "Ġoperate": 7452,
      "Ġdemands": 7453,
      "Ġpod": 7454,
      "Ġduty": 7455,
      "reams": 7456,
      "quarters": 7457,
      "Ġdowntown": 7458,
      "Ġequivalent": 7459,
      "ĠWater": 7460,
      "Ġexists": 7461,
      "Ġpersonnel": 7462,
      "Ġsuccessfully": 7463,
      "Ġcrucial": 7464,
      "ĠPacific": 7465,
      "Ġaccomp": 7466,
      "ĠProgram": 7467,
      "ĠOl": 7468,
      "Ġassistance": 7469,
      "Ġtroub": 7470,
      "Ġexplanation": 7471,
      "2011": 7472,
      "ĠWhere": 7473,
      "Ġgranted": 7474,
      "ĠCome": 7475,
      "Ġaimed": 7476,
      "Ġveteran": 7477,
      "Ġwestern": 7478,
      "ĠSenator": 7479,
      "ĠAuthor": 7480,
      "Ġsanctions": 7481,
      "Ġfeedback": 7482,
      "ĠWisconsin": 7483,
      "ules": 7484,
      "ĠTw": 7485,
      "ATO": 7486,
      "Ġbeliefs": 7487,
      "Ġcable": 7488,
      "Ġtechniques": 7489,
      "ĠSteven": 7490,
      "Ġrepresented": 7491,
      "Ð»": 7492,
      "itals": 7493,
      "Dr": 7494,
      "Ġpace": 7495,
      "Ġengage": 7496,
      "Ġcompete": 7497,
      "athy": 7498,
      "Ġblocks": 7499,
      "Ġcontrols": 7500,
      "Ġlawmakers": 7501,
      "Ġenable": 7502,
      "Ġunusual": 7503,
      "ĠRoss": 7504,
      "Ġorigin": 7505,
      "esy": 7506,
      "ĠTony": 7507,
      "Ġlawyers": 7508,
      "ĠBru": 7509,
      "Ġrecru": 7510,
      "Ġrecording": 7511,
      "Ġaffili": 7512,
      "idelines": 7513,
      "idency": 7514,
      "Ġvulnerable": 7515,
      "Ġprinciples": 7516,
      "adelph": 7517,
      "Ġpenalty": 7518,
      "Mean": 7519,
      "ĠTaylor": 7520,
      "Ġru": 7521,
      "Ġsup": 7522,
      "Ġdiscipl": 7523,
      "ns": 7524,
      "Ġclubs": 7525,
      "making": 7526,
      "Ġtrib": 7527,
      "Ġintense": 7528,
      "Ġteaching": 7529,
      "Ġsatell": 7530,
      "orted": 7531,
      "onic": 7532,
      "igen": 7533,
      "ĠAli": 7534,
      "alling": 7535,
      "opher": 7536,
      "uts": 7537,
      "Ġshortly": 7538,
      "Ġrarely": 7539,
      "RC": 7540,
      "Ġeverywhere": 7541,
      "rific": 7542,
      "Ġclients": 7543,
      "Ġphones": 7544,
      "Ġvisited": 7545,
      "ĠPen": 7546,
      "Ġplastic": 7547,
      "Ġbusy": 7548,
      "ĠTest": 7549,
      "Com": 7550,
      "Ġengaged": 7551,
      "ye": 7552,
      "Ġsurgery": 7553,
      "Ġacademic": 7554,
      "Ġadvis": 7555,
      "ĠAnth": 7556,
      "LC": 7557,
      "Ġgaming": 7558,
      "Ġformal": 7559,
      "Ġneuro": 7560,
      "Ġrecovery": 7561,
      "ĠSat": 7562,
      "Ġphr": 7563,
      "Ġinev": 7564,
      "Ġchances": 7565,
      "Ġregistered": 7566,
      "ĠOs": 7567,
      "ĠGi": 7568,
      "adelphia": 7569,
      "mod": 7570,
      "Ġfought": 7571,
      "ilton": 7572,
      "Ġjournalist": 7573,
      "68": 7574,
      "Ġbills": 7575,
      "aun": 7576,
      "Ġexposure": 7577,
      "emen": 7578,
      "ĠStill": 7579,
      "ibilities": 7580,
      "Ġfinance": 7581,
      "Ġscenario": 7582,
      "Ġinject": 7583,
      "Ġfake": 7584,
      "rous": 7585,
      "ML": 7586,
      "ked": 7587,
      "Ġcollected": 7588,
      "ĠThanks": 7589,
      "Ġmagic": 7590,
      "Mar": 7591,
      "Ġstable": 7592,
      "Ġ150": 7593,
      "rome": 7594,
      "ĠOper": 7595,
      "Ġportion": 7596,
      "rete": 7597,
      "Ġblind": 7598,
      "rehens": 7599,
      "Ġregardless": 7600,
      "Off": 7601,
      "Ġrating": 7602,
      "Ġworker": 7603,
      "Ġbes": 7604,
      "ĠNavy": 7605,
      "ĠKelly": 7606,
      "54": 7607,
      "Ġriver": 7608,
      "Ġstrikes": 7609,
      "Ġ_": 7610,
      "ĠHor": 7611,
      "Ġpasses": 7612,
      "ĠLook": 7613,
      "Ġconspir": 7614,
      "Ġmainly": 7615,
      "ĠPolicy": 7616,
      "lan": 7617,
      "Ġfeelings": 7618,
      "Ġanticip": 7619,
      "Ġcyber": 7620,
      "ĠJosh": 7621,
      "Ġestablishment": 7622,
      "Ġracial": 7623,
      "Ġsurvive": 7624,
      "Ġletters": 7625,
      "ima": 7626,
      "ULL": 7627,
      "etary": 7628,
      "ĠNBC": 7629,
      "scape": 7630,
      "Ġcounsel": 7631,
      "star": 7632,
      "Ġads": 7633,
      "Ġ42": 7634,
      "Ġpin": 7635,
      "ĠRog": 7636,
      "Ġemerged": 7637,
      "ĠKent": 7638,
      "burgh": 7639,
      "gorith": 7640,
      "Col": 7641,
      "Ġ400": 7642,
      "Ġcounty": 7643,
      "Ġtall": 7644,
      "Ġgall": 7645,
      "Ġpriority": 7646,
      "Ġpounds": 7647,
      "ĠGar": 7648,
      "Ġparticipate": 7649,
      "ĠBusiness": 7650,
      "Ġdollar": 7651,
      "front": 7652,
      "Ġcontracts": 7653,
      "EA": 7654,
      "ao": 7655,
      "Ġsin": 7656,
      "Ġexplicit": 7657,
      "Ġcorruption": 7658,
      "oured": 7659,
      "ĠRick": 7660,
      "Ġdescribes": 7661,
      "iler": 7662,
      "Ġshares": 7663,
      "viously": 7664,
      "51": 7665,
      "Ġven": 7666,
      "Ġlaid": 7667,
      "Ġafraid": 7668,
      "ĠMS": 7669,
      "Ġentit": 7670,
      "53": 7671,
      "ria": 7672,
      "800": 7673,
      "Ġwonderful": 7674,
      "Ġdinner": 7675,
      "Ġtank": 7676,
      "ĠCur": 7677,
      "Ġstab": 7678,
      "Ġinspir": 7679,
      "Ġextrem": 7680,
      "Ġcomponents": 7681,
      "Ġdepending": 7682,
      "upid": 7683,
      "Ġ41": 7684,
      "Ġprinciple": 7685,
      "Ġ64": 7686,
      "icer": 7687,
      "bour": 7688,
      "Ġtaste": 7689,
      "Ġtoler": 7690,
      "Ġresulted": 7691,
      "Ġlosses": 7692,
      "ĠSpecial": 7693,
      "Ġuncertain": 7694,
      "month": 7695,
      "Ġstrict": 7696,
      "Rec": 7697,
      "text": 7698,
      "Ġgenuine": 7699,
      "Ġtor": 7700,
      "Ġprogramming": 7701,
      "ĠConservative": 7702,
      "ĠAcademy": 7703,
      "Ġcited": 7704,
      "itors": 7705,
      "Ġsolve": 7706,
      "52": 7707,
      "tes": 7708,
      "uan": 7709,
      "mate": 7710,
      "eland": 7711,
      "Ġroot": 7712,
      "Ġheaded": 7713,
      "ĠMcG": 7714,
      "ĠChristians": 7715,
      "Ġtherap": 7716,
      "log": 7717,
      "ĠNation": 7718,
      "iscal": 7719,
      "Ġwithdraw": 7720,
      "Ġpossession": 7721,
      "State": 7722,
      "Ġbasketball": 7723,
      "mann": 7724,
      "who": 7725,
      "ĠHay": 7726,
      "Ġdisaster": 7727,
      "Ġ1998": 7728,
      "jo": 7729,
      "yard": 7730,
      "ĠNorthern": 7731,
      "ĠKurd": 7732,
      "Ġvisible": 7733,
      "Ġhadn": 7734,
      "Ġwarming": 7735,
      "ĠLGBT": 7736,
      "ĠAlabama": 7737,
      "ĠâĢĻ": 7738,
      "Ġarrange": 7739,
      "Ġbrowser": 7740,
      "aron": 7741,
      "agger": 7742,
      "istent": 7743,
      "ĠRose": 7744,
      "ĠInvest": 7745,
      "Ġprivile": 7746,
      "Ġdict": 7747,
      "ĠHom": 7748,
      "Ġimper": 7749,
      "FF": 7750,
      "Ġfee": 7751,
      "ĠAvenue": 7752,
      "Ġwheel": 7753,
      "Ġenjoyed": 7754,
      "this": 7755,
      "inity": 7756,
      "Ġexpectations": 7757,
      "lad": 7758,
      "Ġshock": 7759,
      "Ġtickets": 7760,
      "Ġthin": 7761,
      "ĠEmp": 7762,
      "Ġbanned": 7763,
      "RS": 7764,
      "ulating": 7765,
      "hent": 7766,
      "Ġcup": 7767,
      "Ġdozens": 7768,
      "Ġveget": 7769,
      "ĠKingdom": 7770,
      "Ġwing": 7771,
      "ĠAh": 7772,
      "ĠBoy": 7773,
      "BO": 7774,
      "Ġmel": 7775,
      "Ġcannabis": 7776,
      "Ġphotograph": 7777,
      "Ġrobot": 7778,
      "Ġstadium": 7779,
      "ĠHit": 7780,
      "ĠFair": 7781,
      "Ġroles": 7782,
      "Ġadvertising": 7783,
      "elect": 7784,
      "Ġcameras": 7785,
      "ĠEducation": 7786,
      "Ġtur": 7787,
      "Ġho": 7788,
      "ĠLinux": 7789,
      "pread": 7790,
      "Ġrecip": 7791,
      "Meanwhile": 7792,
      "MS": 7793,
      "ĠDar": 7794,
      "Ġfoundation": 7795,
      "athered": 7796,
      "Ġbrut": 7797,
      "Ġstations": 7798,
      "Ġdelivery": 7799,
      "Ġprocesses": 7800,
      "Ġloyal": 7801,
      "Ġbom": 7802,
      "ĠAD": 7803,
      "ĠHT": 7804,
      "ĠCoast": 7805,
      "ami": 7806,
      "Ġedition": 7807,
      "ĠConference": 7808,
      "cles": 7809,
      "hy": 7810,
      "ĠMid": 7811,
      "Ġchampionship": 7812,
      "Ġthousand": 7813,
      "97": 7814,
      "Ġstructures": 7815,
      "ifies": 7816,
      "Ġfirms": 7817,
      "ĠColl": 7818,
      "Ġyield": 7819,
      "umer": 7820,
      "Ġengineering": 7821,
      "world": 7822,
      "ailed": 7823,
      "obs": 7824,
      "Ġobst": 7825,
      "Ġextract": 7826,
      "Ġbehalf": 7827,
      "Ġinterviews": 7828,
      "afe": 7829,
      "Ġmo": 7830,
      "Ġtracks": 7831,
      "Ġspr": 7832,
      "Ġridic": 7833,
      "Ġiron": 7834,
      "Ġcrop": 7835,
      "Ġproducer": 7836,
      "Ġcomputers": 7837,
      "ĠDiego": 7838,
      "ĠSnow": 7839,
      "Ġindex": 7840,
      "Ġparam": 7841,
      "Ġenorm": 7842,
      "Ġlights": 7843,
      "ilipp": 7844,
      "aus": 7845,
      "imore": 7846,
      "agram": 7847,
      "Ġ1960": 7848,
      "Ġgenerated": 7849,
      "ĠCare": 7850,
      "ĠThus": 7851,
      "orough": 7852,
      "%.": 7853,
      "Ġpatterns": 7854,
      "Ġthick": 7855,
      "Ġminority": 7856,
      "Ġloud": 7857,
      "Ġscoring": 7858,
      "Pr": 7859,
      "ĠRay": 7860,
      "Ġcoordin": 7861,
      "Ġstruggling": 7862,
      "imm": 7863,
      "Ġmedium": 7864,
      "Ġcreates": 7865,
      "Ġfinger": 7866,
      "Ġspark": 7867,
      "ĠJudge": 7868,
      "Ref": 7869,
      "ĠBefore": 7870,
      "idespread": 7871,
      "ĠFund": 7872,
      "prise": 7873,
      "umin": 7874,
      "âĢĻ,": 7875,
      "ĠHard": 7876,
      "ystem": 7877,
      "owing": 7878,
      "Ġrelief": 7879,
      "ĠPremier": 7880,
      "ĠDid": 7881,
      "Ġ($": 7882,
      "Ġindicate": 7883,
      "inking": 7884,
      "Ġuniform": 7885,
      "iel": 7886,
      "Ġpermission": 7887,
      "leveland": 7888,
      "arlier": 7889,
      "Ġuncom": 7890,
      "ĠGreek": 7891,
      "ĠDevelopment": 7892,
      "ĠReuters": 7893,
      "Ġfruit": 7894,
      "ĠTake": 7895,
      "riers": 7896,
      "ĠKir": 7897,
      "Ġhole": 7898,
      "ĠGreg": 7899,
      "Ġsharp": 7900,
      "ĠPhiladelphia": 7901,
      "profit": 7902,
      "ĠManchester": 7903,
      "etts": 7904,
      "ĠHas": 7905,
      "Ġplate": 7906,
      "ĠSk": 7907,
      "portion": 7908,
      "power": 7909,
      "Ġbridge": 7910,
      "ĠAlbert": 7911,
      "Star": 7912,
      "Ġfounded": 7913,
      "iy": 7914,
      "ĠGer": 7915,
      "bec": 7916,
      "orne": 7917,
      "Ġupset": 7918,
      "Ġexception": 7919,
      "Ġhired": 7920,
      "osexual": 7921,
      "Ġgained": 7922,
      "Ġdestruction": 7923,
      "ounced": 7924,
      "ĠAdministration": 7925,
      "Ġsaved": 7926,
      "ancou": 7927,
      "Ġtaxp": 7928,
      "car": 7929,
      "unes": 7930,
      "Before": 7931,
      "ĠIowa": 7932,
      "Ġforever": 7933,
      "Ġcrypt": 7934,
      "Getty": 7935,
      "Ġocean": 7936,
      "ĠFoot": 7937,
      "aska": 7938,
      "she": 7939,
      "aning": 7940,
      "Ġneutral": 7941,
      "ĠAmendment": 7942,
      "ĠMir": 7943,
      "Ġships": 7944,
      "Ġplug": 7945,
      "Ġrecognized": 7946,
      "Ġtox": 7947,
      "ĠBalt": 7948,
      "ATE": 7949,
      "ĠArabia": 7950,
      "Ġframework": 7951,
      "olis": 7952,
      "ĠBernie": 7953,
      "ho": 7954,
      "elf": 7955,
      "ĠReview": 7956,
      "ĠPerhaps": 7957,
      "ĠCameron": 7958,
      "interest": 7959,
      "Ġfarmers": 7960,
      "found": 7961,
      "Ġprocessing": 7962,
      "Ġtail": 7963,
      "Ġproven": 7964,
      "Ġcontaining": 7965,
      "Ġextension": 7966,
      "lla": 7967,
      "Ġalgorith": 7968,
      "ĠGlobal": 7969,
      "antic": 7970,
      "away": 7971,
      "Ġrely": 7972,
      "Ġbacked": 7973,
      "acco": 7974,
      "rik": 7975,
      "Ġcontained": 7976,
      "engers": 7977,
      "ogether": 7978,
      "azz": 7979,
      "HA": 7980,
      "Ġbath": 7981,
      "Ġelev": 7982,
      "abs": 7983,
      "ihad": 7984,
      "ĠLive": 7985,
      "teen": 7986,
      "Ġmanufacturing": 7987,
      "SL": 7988,
      "ĠOak": 7989,
      "Ġflaw": 7990,
      "ĠMayor": 7991,
      "Mc": 7992,
      "Ġ65": 7993,
      "Ġfault": 7994,
      "Ġethnic": 7995,
      "sylv": 7996,
      "Ġimprovements": 7997,
      "pie": 7998,
      "Ġretired": 7999,
      "Who": 8000,
      "ĠMarket": 8001,
      "ĠJac": 8002,
      "esh": 8003,
      "osit": 8004,
      "ixed": 8005,
      "Ġinitiative": 8006,
      "ancouver": 8007,
      "Ġwalls": 8008,
      "Ġracist": 8009,
      "ĠTem": 8010,
      "ĠVar": 8011,
      "Ġmagn": 8012,
      "intendo": 8013,
      "Ġtag": 8014,
      "Ġmos": 8015,
      "ĠCall": 8016,
      "Ġbarely": 8017,
      "iti": 8018,
      "Ġutil": 8019,
      "Ġsugar": 8020,
      "Those": 8021,
      "Ġentering": 8022,
      "Ġlistening": 8023,
      "Ġtackle": 8024,
      "gun": 8025,
      "ĠRef": 8026,
      "Ġreviews": 8027,
      "Ġimplementation": 8028,
      "asion": 8029,
      "ĠUFC": 8030,
      "Ġperpet": 8031,
      "Ġlegend": 8032,
      "Ġreduction": 8033,
      "ja": 8034,
      "ĠFC": 8035,
      "Ġhistoric": 8036,
      "Ġdim": 8037,
      "Ġliked": 8038,
      "Ġborrow": 8039,
      "ĠLind": 8040,
      "ĠAllen": 8041,
      "Ġbegun": 8042,
      "PL": 8043,
      "Ġexceed": 8044,
      "Ġju": 8045,
      "Ġconvin": 8046,
      "ĠRoyal": 8047,
      "ĠNote": 8048,
      "Ġrestrictions": 8049,
      "Ġcampaigns": 8050,
      "Ġfootage": 8051,
      "ĠJason": 8052,
      "âĢĭ": 8053,
      "Ġrecognition": 8054,
      "Ġwidespread": 8055,
      "ĠMah": 8056,
      "Ġ55": 8057,
      "ĠTurkish": 8058,
      "Ġstone": 8059,
      "Ġtestim": 8060,
      "Ġhang": 8061,
      "uma": 8062,
      "Ġprepare": 8063,
      "600": 8064,
      "cific": 8065,
      "herent": 8066,
      "aying": 8067,
      "Ġacceler": 8068,
      "Ġfeaturing": 8069,
      "Dav": 8070,
      "ĠConf": 8071,
      "Ġbranch": 8072,
      "ĠPrice": 8073,
      "Ġcontroversy": 8074,
      "Ġphilosophy": 8075,
      "ĠStone": 8076,
      "Ġachieved": 8077,
      "Ass": 8078,
      "Ġcontribute": 8079,
      "Ġinvited": 8080,
      "Ġdeliber": 8081,
      "ĠAPI": 8082,
      "Ġdistr": 8083,
      "ĠMoon": 8084,
      "Ġunex": 8085,
      "Ġdeeper": 8086,
      "Ġrose": 8087,
      "Ġmovements": 8088,
      "Ġprofession": 8089,
      "sylvania": 8090,
      "Ed": 8091,
      "ĠAsh": 8092,
      "Ġdrawing": 8093,
      "ester": 8094,
      "ĠFood": 8095,
      "Ġequally": 8096,
      "Ġintellectual": 8097,
      "Ġproducing": 8098,
      "Ġcro": 8099,
      "ĠDig": 8100,
      "Ġdiscussions": 8101,
      "ĠNever": 8102,
      "rical": 8103,
      "##": 8104,
      "usive": 8105,
      "87": 8106,
      "Ġpump": 8107,
      "ĠMinistry": 8108,
      "AG": 8109,
      "ĠMajor": 8110,
      "Ġreaching": 8111,
      "Ġholiday": 8112,
      "Ġhide": 8113,
      "igare": 8114,
      "Ġsmoke": 8115,
      "ĠAustin": 8116,
      "ython": 8117,
      "ez": 8118,
      "ĠUC": 8119,
      "achus": 8120,
      "ĠColumbia": 8121,
      "Ġcha": 8122,
      "Ġasks": 8123,
      "ĠFred": 8124,
      "Ġ47": 8125,
      "Ġairport": 8126,
      "Ġnominee": 8127,
      "ĠRen": 8128,
      "Ġchallenging": 8129,
      "Ġsmooth": 8130,
      "hot": 8131,
      "uer": 8132,
      "auc": 8133,
      "))": 8134,
      "President": 8135,
      "Ġtheat": 8136,
      "ĠThree": 8137,
      "Ġspaces": 8138,
      "Ġelig": 8139,
      "Ġcorporations": 8140,
      "Ġhitting": 8141,
      "unior": 8142,
      "ĠPatri": 8143,
      "amber": 8144,
      "Ġremem": 8145,
      "cover": 8146,
      "ĠCentre": 8147,
      "PC": 8148,
      "fall": 8149,
      "uction": 8150,
      "alia": 8151,
      "uted": 8152,
      "ĠTenn": 8153,
      "ĠFed": 8154,
      "Ġjury": 8155,
      "udes": 8156,
      "Ġscandal": 8157,
      "ĠReport": 8158,
      "Ġrapidly": 8159,
      "ĠLy": 8160,
      "ĠRoy": 8161,
      "ĠNSA": 8162,
      "Ġelectronic": 8163,
      "bell": 8164,
      "ĠCleveland": 8165,
      "Ġvary": 8166,
      "Ġdescription": 8167,
      "âĢĶâĢĶâĢĶâĢĶ": 8168,
      "ĠLo": 8169,
      "ĠAnton": 8170,
      "Look": 8171,
      "Ġ1997": 8172,
      "Ġassociation": 8173,
      "ĠNATO": 8174,
      "ĠOtt": 8175,
      "Ġconvicted": 8176,
      "Ġexclusive": 8177,
      "Ġoffices": 8178,
      "Ġstatistics": 8179,
      "Ġexpanded": 8180,
      "Sub": 8181,
      "ĠBry": 8182,
      "Ġsubjects": 8183,
      "Ġ44": 8184,
      "ĠLuc": 8185,
      "Ġcomplaints": 8186,
      "ione": 8187,
      "ĠSir": 8188,
      "etime": 8189,
      "Ġvisitors": 8190,
      "uce": 8191,
      "Ġindicated": 8192,
      "Ġcarefully": 8193,
      "Ġimplemented": 8194,
      "ĠPortland": 8195,
      "Ġsymptoms": 8196,
      "weet": 8197,
      "ĠAtlanta": 8198,
      "sole": 8199,
      "Ġincent": 8200,
      "dr": 8201,
      "ĠâĢ¢": 8202,
      "aching": 8203,
      "Ġpractical": 8204,
      "cling": 8205,
      "ï¿": 8206,
      "Ġlists": 8207,
      "ĠMu": 8208,
      "Ġdiscovery": 8209,
      "Ġwarrant": 8210,
      "Ġrepresentative": 8211,
      "usted": 8212,
      "Ġstrategic": 8213,
      "ĠField": 8214,
      "ĠCirc": 8215,
      "Ġreducing": 8216,
      "Ġdiscrimination": 8217,
      "ependent": 8218,
      "achusetts": 8219,
      "Ġhardly": 8220,
      "Post": 8221,
      "rolled": 8222,
      "Ġgonna": 8223,
      "ĠBad": 8224,
      "Ġanger": 8225,
      "Ġgra": 8226,
      "Ġovert": 8227,
      "Ġconvinced": 8228,
      "Ġbureau": 8229,
      "Ġren": 8230,
      "ĠPoint": 8231,
      "iversary": 8232,
      "Ġjoining": 8233,
      "Ġfailing": 8234,
      "ĠRadio": 8235,
      "een": 8236,
      "lessly": 8237,
      "Ġsuggesting": 8238,
      "ĠMatthew": 8239,
      "Ġ\\": 8240,
      "ĠFull": 8241,
      "ĠBrother": 8242,
      "ĠSn": 8243,
      "inois": 8244,
      "then": 8245,
      "Ġdoors": 8246,
      "ĠVis": 8247,
      "Ġoverwhelming": 8248,
      "Back": 8249,
      "Ġnotion": 8250,
      "Ġroads": 8251,
      "Ġswim": 8252,
      "Russ": 8253,
      "heast": 8254,
      "Ġrational": 8255,
      "ĠVR": 8256,
      "omething": 8257,
      "Ġvital": 8258,
      "ĠAbout": 8259,
      "arrass": 8260,
      "Ġsynt": 8261,
      "Ġserves": 8262,
      "ĠHarris": 8263,
      "Ġtone": 8264,
      "Ġsteal": 8265,
      "ĠRet": 8266,
      "Ġregulation": 8267,
      "69": 8268,
      "pload": 8269,
      "Ġwelf": 8270,
      "Ġchapter": 8271,
      "itionally": 8272,
      "Ġhypot": 8273,
      "Ġattacking": 8274,
      "case": 8275,
      "ĠIT": 8276,
      "eman": 8277,
      "anted": 8278,
      "ĠAdv": 8279,
      "89": 8280,
      "ĠGov": 8281,
      "Ġlicens": 8282,
      "Ġinvolvement": 8283,
      "Ġmail": 8284,
      "amsung": 8285,
      "oding": 8286,
      "raph": 8287,
      "Ġhook": 8288,
      "ĠAnthony": 8289,
      "Ġwelfare": 8290,
      "Ġluck": 8291,
      "iley": 8292,
      "Ġcasual": 8293,
      "Ġflash": 8294,
      "ipal": 8295,
      "icking": 8296,
      "Ġownership": 8297,
      "Ġsoph": 8298,
      "Ġmissile": 8299,
      "ĠCommunity": 8300,
      "Ġtrigger": 8301,
      "umes": 8302,
      "ĠGT": 8303,
      "anna": 8304,
      "Ġconnections": 8305,
      "Ġreferring": 8306,
      "olen": 8307,
      "ĠWW": 8308,
      "oval": 8309,
      "Ġunclear": 8310,
      "enth": 8311,
      "Ġinvestigate": 8312,
      "ĠPennsylvania": 8313,
      "ĠNic": 8314,
      "appy": 8315,
      "Ġrevel": 8316,
      "Ġanybody": 8317,
      "Ġaccus": 8318,
      "Ġgrass": 8319,
      "Will": 8320,
      "Ġdisagree": 8321,
      "Under": 8322,
      "Ġrespectively": 8323,
      "ĠMusic": 8324,
      "Ġwars": 8325,
      "Ġthrown": 8326,
      "ĠPhilipp": 8327,
      "allel": 8328,
      "ifest": 8329,
      "rient": 8330,
      "Ġbrill": 8331,
      "Ġtip": 8332,
      "Ġguitar": 8333,
      "ĠBeach": 8334,
      "Ġgathered": 8335,
      "acon": 8336,
      "sels": 8337,
      "Ġdeputy": 8338,
      "Ġboat": 8339,
      "ĠHarry": 8340,
      "Us": 8341,
      "bn": 8342,
      "Ġaver": 8343,
      "Ġstake": 8344,
      "Ġrural": 8345,
      "Ġviewers": 8346,
      "Ġnormally": 8347,
      "Ġsuspected": 8348,
      "Ġrecover": 8349,
      "Ġremarks": 8350,
      "Ġprogressive": 8351,
      "hour": 8352,
      "Ġli": 8353,
      "ĠFamily": 8354,
      "icket": 8355,
      "Ġfriendly": 8356,
      "including": 8357,
      "Ġresource": 8358,
      "::": 8359,
      "ila": 8360,
      "ĠOnt": 8361,
      "otype": 8362,
      "ï¿½": 8363,
      "Ġcomponent": 8364,
      "ĠVancouver": 8365,
      "ĠTri": 8366,
      "ĠSP": 8367,
      "iry": 8368,
      "Ġraw": 8369,
      "2016": 8370,
      "ĠJay": 8371,
      "Ġdemocratic": 8372,
      "Ġbehaviour": 8373,
      "rac": 8374,
      "ĠAR": 8375,
      "tering": 8376,
      "ĠMarc": 8377,
      "lah": 8378,
      "ĠABC": 8379,
      "Ġcivilians": 8380,
      "ĠCore": 8381,
      "ĠKat": 8382,
      "Ġpeak": 8383,
      "Ġlegitimate": 8384,
      "ĠMedical": 8385,
      "Ġgear": 8386,
      "Ġpref": 8387,
      "Ġlegs": 8388,
      "Ġgrounds": 8389,
      "Ġcollapse": 8390,
      "abinet": 8391,
      "page": 8392,
      "Ġproviders": 8393,
      "Ġeastern": 8394,
      "Ġopinions": 8395,
      "Ġstupid": 8396,
      "ĠMcCain": 8397,
      "Ġsamples": 8398,
      "SE": 8399,
      "ĠBuff": 8400,
      "ikes": 8401,
      "Ste": 8402,
      "mat": 8403,
      "worth": 8404,
      "ĠIranian": 8405,
      "Please": 8406,
      "Ġsubstantial": 8407,
      "Ġwages": 8408,
      "Ġvoter": 8409,
      "Ġillness": 8410,
      "Che": 8411,
      "Ġinvolves": 8412,
      "\":\"": 8413,
      "ĠInformation": 8414,
      "Ġreprodu": 8415,
      "ĠBrew": 8416,
      "ĠChair": 8417,
      "ĠNext": 8418,
      "isp": 8419,
      "ĠRand": 8420,
      "Ġsuspended": 8421,
      "sl": 8422,
      "ĠCarter": 8423,
      "Ġdynamic": 8424,
      "isk": 8425,
      "Ġshit": 8426,
      "Ġepisodes": 8427,
      "serv": 8428,
      "Ġprosec": 8429,
      "ĠData": 8430,
      "Ġinteract": 8431,
      "ĠBroad": 8432,
      "Ġsensitive": 8433,
      "Ġincorpor": 8434,
      "Ġunc": 8435,
      "Ġcomprehens": 8436,
      "ultural": 8437,
      "Ġquote": 8438,
      "Ġwrest": 8439,
      "oz": 8440,
      "Ġextend": 8441,
      "Ġdepression": 8442,
      "aga": 8443,
      "Ġpoison": 8444,
      "trans": 8445,
      "ĠSpring": 8446,
      "Ġlobby": 8447,
      "Ġcovers": 8448,
      "Ġtransgender": 8449,
      "Ġdevast": 8450,
      "Ġultimate": 8451,
      "ĠSquare": 8452,
      "RL": 8453,
      "Ġles": 8454,
      "Ġconsistently": 8455,
      "Ġtechnique": 8456,
      "Ġ1996": 8457,
      "ĠiOS": 8458,
      "Ġsettlement": 8459,
      "Ġentertainment": 8460,
      "Ġbars": 8461,
      "uties": 8462,
      "Ġchat": 8463,
      "Ġjudges": 8464,
      "ĠPatrick": 8465,
      "Ġeuro": 8466,
      "Ġsalary": 8467,
      "79": 8468,
      "Ġforest": 8469,
      "Ġindependence": 8470,
      "market": 8471,
      "ais": 8472,
      "ĠCre": 8473,
      "Ġresign": 8474,
      "Ġcontributions": 8475,
      "Ġfantasy": 8476,
      "Ġcogn": 8477,
      "Ġdrew": 8478,
      "Ġlands": 8479,
      "Part": 8480,
      "Ġreven": 8481,
      "ĠIC": 8482,
      "Ġrecommended": 8483,
      "Ġunions": 8484,
      "Ġ46": 8485,
      "Ġsuffer": 8486,
      "Ġadmit": 8487,
      "'.": 8488,
      "Ġbail": 8489,
      "ĠStadium": 8490,
      "Ġfactory": 8491,
      "ĠGuardian": 8492,
      "Ġbub": 8493,
      "Ġfulf": 8494,
      "vard": 8495,
      "ĠOS": 8496,
      "Ġje": 8497,
      "ommod": 8498,
      "dem": 8499,
      "Ġlogic": 8500,
      "ources": 8501,
      "https": 8502,
      "ĠBall": 8503,
      "Ġmountain": 8504,
      "72": 8505,
      "dog": 8506,
      "ĠNev": 8507,
      "UT": 8508,
      "Ġraces": 8509,
      "Ġspoken": 8510,
      "Ġabsence": 8511,
      "Ġconstitutional": 8512,
      "ĠRos": 8513,
      "Ġalien": 8514,
      "ĠOK": 8515,
      "ologists": 8516,
      "Ġseemingly": 8517,
      "Ġconce": 8518,
      "Ġ1994": 8519,
      "ĠLatin": 8520,
      "eding": 8521,
      "Ġgam": 8522,
      "Ġ52": 8523,
      "phones": 8524,
      "Ġpersonality": 8525,
      "Ġham": 8526,
      "ĠMassachusetts": 8527,
      "Where": 8528,
      "Ġheading": 8529,
      "annon": 8530,
      "PG": 8531,
      "rimin": 8532,
      "heim": 8533,
      "Ġingred": 8534,
      "ĠCO": 8535,
      "ĠPack": 8536,
      "Ġbrothers": 8537,
      "Ġfab": 8538,
      "Ġliquid": 8539,
      "Ġporn": 8540,
      "ounce": 8541,
      "Ġtweeted": 8542,
      "ĠSanta": 8543,
      "ĠHistory": 8544,
      "stract": 8545,
      "Ġmathem": 8546,
      "\",\"": 8547,
      "Ġtea": 8548,
      "ĠXbox": 8549,
      "ĠCheck": 8550,
      "Ġ1995": 8551,
      "Ġactivist": 8552,
      "Ġaffairs": 8553,
      "Ġscholars": 8554,
      "Ġprotein": 8555,
      "ĠAp": 8556,
      "ĠMuseum": 8557,
      "Ġminds": 8558,
      "ĠIII": 8559,
      "Ġterrorists": 8560,
      "Ġranked": 8561,
      "ĠEs": 8562,
      "ective": 8563,
      "ĠAnderson": 8564,
      "ĠLyn": 8565,
      "ĠPitt": 8566,
      "ĠNintendo": 8567,
      "ira": 8568,
      "Ġtransactions": 8569,
      "Ġpapers": 8570,
      "ĠIce": 8571,
      "iverpool": 8572,
      "ĠFurther": 8573,
      "Ġsoil": 8574,
      "Ġdepends": 8575,
      "Ġtrained": 8576,
      "Ġviewed": 8577,
      "ĠSuch": 8578,
      "Ġinvent": 8579,
      "Ġinterface": 8580,
      "Ġwww": 8581,
      "Ġhumanity": 8582,
      "Ġfallen": 8583,
      "Ġjoke": 8584,
      "ĠâĢĿ": 8585,
      "iano": 8586,
      "Ġinvestigating": 8587,
      "Ġstayed": 8588,
      "Ġestimate": 8589,
      "Ġtomorrow": 8590,
      "van": 8591,
      "ĠCook": 8592,
      "angel": 8593,
      "Ġreads": 8594,
      "core": 8595,
      "Ġembarrass": 8596,
      "ĠDenver": 8597,
      "icity": 8598,
      "Ġouts": 8599,
      "ĠMean": 8600,
      "SD": 8601,
      "Ġenormous": 8602,
      "IF": 8603,
      "Ġhanded": 8604,
      "Ġcollective": 8605,
      "Ġspiritual": 8606,
      "\">": 8607,
      "Ġmoon": 8608,
      "ĠUlt": 8609,
      "rine": 8610,
      "Ġphotograp": 8611,
      "Ġimprovement": 8612,
      "ourse": 8613,
      "claim": 8614,
      "Ġscores": 8615,
      "ĠHon": 8616,
      "Ġdisrupt": 8617,
      "Ġregister": 8618,
      "Ġcopies": 8619,
      "Ġpresum": 8620,
      "Ġpublication": 8621,
      "Ġpremium": 8622,
      "bi": 8623,
      "Ġjur": 8624,
      "Ġhandful": 8625,
      "Ġadvocates": 8626,
      "About": 8627,
      "Both": 8628,
      "Ġawareness": 8629,
      "ĠGun": 8630,
      "Ġtemporary": 8631,
      "rets": 8632,
      "ĠAction": 8633,
      "Ġpetition": 8634,
      "Ġexternal": 8635,
      "Ġlowest": 8636,
      "only": 8637,
      "Ġsteel": 8638,
      "mad": 8639,
      "oen": 8640,
      "Ġattitude": 8641,
      "Ġvirtually": 8642,
      "itage": 8643,
      "Ġnaturally": 8644,
      "Ġtransportation": 8645,
      "mary": 8646,
      "Ġdivided": 8647,
      "ĠNOT": 8648,
      "wered": 8649,
      "Ġwebsites": 8650,
      "Ġsorry": 8651,
      "akh": 8652,
      "Ġentr": 8653,
      "Sm": 8654,
      "Ġencouraged": 8655,
      "ĠHD": 8656,
      "Ġ43": 8657,
      "annels": 8658,
      "Ġrook": 8659,
      "Ġamid": 8660,
      "ĠIllinois": 8661,
      "Ġfiction": 8662,
      "Ġpartnership": 8663,
      "Ġrescue": 8664,
      "Ġlegacy": 8665,
      "ĠMaster": 8666,
      "ĠFreedom": 8667,
      "Ġmonitor": 8668,
      "Ġmining": 8669,
      "EST": 8670,
      "Ġfears": 8671,
      "El": 8672,
      "outing": 8673,
      "aka": 8674,
      "ĠProv": 8675,
      "Ġmarks": 8676,
      "rec": 8677,
      "Ġinstrument": 8678,
      "Ġcust": 8679,
      "ĠCooper": 8680,
      "Ġignore": 8681,
      "repre": 8682,
      "Ġfiscal": 8683,
      "type": 8684,
      "Ġballot": 8685,
      "Ġplatforms": 8686,
      "ĠBudd": 8687,
      "Ġconversations": 8688,
      "%,": 8689,
      "Ġrhet": 8690,
      "Ġswing": 8691,
      "Ġbarrel": 8692,
      "ĠControl": 8693,
      "Ġstages": 8694,
      "isting": 8695,
      "Ġtrem": 8696,
      "News": 8697,
      "Facebook": 8698,
      "Ġactors": 8699,
      "Ġtries": 8700,
      "Ġmad": 8701,
      "Ġinvestigators": 8702,
      "Ġattempting": 8703,
      "Ġhorror": 8704,
      "Sen": 8705,
      "ration": 8706,
      "Ġnoting": 8707,
      "Ġnoise": 8708,
      "Ġcos": 8709,
      "Ġhockey": 8710,
      "ĠLim": 8711,
      "Ġinnovation": 8712,
      "PP": 8713,
      "ammed": 8714,
      "Ġscreens": 8715,
      "Ġfunded": 8716,
      "Related": 8717,
      "ĠConnect": 8718,
      "Ġdramatic": 8719,
      "ĠLittle": 8720,
      "61": 8721,
      "ordon": 8722,
      "Ġcaptain": 8723,
      "Ġcolors": 8724,
      "Ġaddressed": 8725,
      "ĠâĤ¬": 8726,
      "plus": 8727,
      "Ġvirus": 8728,
      "inf": 8729,
      "Ġpurchased": 8730,
      "Ġlocked": 8731,
      "ĠTown": 8732,
      "ĠSony": 8733,
      "Ġincidents": 8734,
      "Ġattached": 8735,
      "Ġintervention": 8736,
      "Ġunemployment": 8737,
      "Ġnomination": 8738,
      "reprene": 8739,
      "Ġtasks": 8740,
      "ĠMach": 8741,
      "Ġcovering": 8742,
      "NS": 8743,
      "aval": 8744,
      "Ġdefine": 8745,
      "Ġintroduction": 8746,
      "Ġdrama": 8747,
      "ĠIntelligence": 8748,
      "maker": 8749,
      "ĠGirl": 8750,
      "Ġpreced": 8751,
      "Ġfalls": 8752,
      "Ġassessment": 8753,
      "ĠHa": 8754,
      "ecut": 8755,
      "pat": 8756,
      "Ġversus": 8757,
      "Ġappreciate": 8758,
      "Ġmenu": 8759,
      "Ġappearances": 8760,
      "high": 8761,
      "Ġaccommod": 8762,
      "Ġbreaks": 8763,
      "Ġtestimony": 8764,
      "Ġimproving": 8765,
      "RI": 8766,
      "Ġrear": 8767,
      "ĠBattle": 8768,
      "Ġprofits": 8769,
      "ĠRoberts": 8770,
      "Ġsymp": 8771,
      "Ġthrowing": 8772,
      "*]": 8773,
      "Ġsubstance": 8774,
      "Ġguarantee": 8775,
      "Ġpoly": 8776,
      "Ġhorse": 8777,
      "Ġdates": 8778,
      "ĠTour": 8779,
      "Ġfantastic": 8780,
      "Ġreliable": 8781,
      "Ġmedicine": 8782,
      "ĠSom": 8783,
      "Ġdispl": 8784,
      "Ġacknowledged": 8785,
      "erted": 8786,
      "Ġfrag": 8787,
      "ĠSeason": 8788,
      "iences": 8789,
      "Ġtie": 8790,
      "Ġfoss": 8791,
      "Her": 8792,
      "Ġshield": 8793,
      "aeda": 8794,
      "Ġconspiracy": 8795,
      "Ġresponses": 8796,
      "74": 8797,
      "Ġpatch": 8798,
      "ported": 8799,
      "Ġdiversity": 8800,
      "urg": 8801,
      "ĠMill": 8802,
      "ĠWhich": 8803,
      "Ġneck": 8804,
      "Ġefficiency": 8805,
      "Ġsubsequent": 8806,
      "des": 8807,
      "Ġwaves": 8808,
      "olph": 8809,
      "Ġauthent": 8810,
      "Out": 8811,
      "ĠAud": 8812,
      "Ġcenters": 8813,
      "Ġcareful": 8814,
      "Ġcompe": 8815,
      "ouch": 8816,
      "ĠAle": 8817,
      "ĠRa": 8818,
      "Ġprogramme": 8819,
      "Ġinflation": 8820,
      "Ġcontrad": 8821,
      "Ġburden": 8822,
      "Ġreplacement": 8823,
      "Ġappointed": 8824,
      "ĠPo": 8825,
      "Ġheadquarters": 8826,
      "scale": 8827,
      "ĠEnvironment": 8828,
      "\".[": 8829,
      "Ġconservatives": 8830,
      "ĠMake": 8831,
      "Ġcance": 8832,
      "Ġreader": 8833,
      "Ġbrown": 8834,
      "JP": 8835,
      "Ġlets": 8836,
      "lahoma": 8837,
      "Ġranks": 8838,
      "Ġassert": 8839,
      "Ġhandling": 8840,
      "Ġsettings": 8841,
      "arms": 8842,
      "ntil": 8843,
      "ĠHead": 8844,
      "Ġpassengers": 8845,
      "Ġacquired": 8846,
      "atus": 8847,
      "ĠProfessor": 8848,
      "mony": 8849,
      "Ġwine": 8850,
      "ppers": 8851,
      "ĠLine": 8852,
      "olves": 8853,
      "94": 8854,
      "inction": 8855,
      "Ġgrav": 8856,
      "ĠGreece": 8857,
      ".-": 8858,
      "race": 8859,
      "Ġfro": 8860,
      "Ġprev": 8861,
      "Ġauto": 8862,
      "Ġarbit": 8863,
      "Ġ51": 8864,
      "Ġguest": 8865,
      "EG": 8866,
      "pa": 8867,
      "Ġcomedy": 8868,
      "Ġjoy": 8869,
      "plate": 8870,
      "Ġdistributed": 8871,
      "Ġequality": 8872,
      "Cons": 8873,
      "Ġfighter": 8874,
      "Ġexit": 8875,
      "!)": 8876,
      "EX": 8877,
      "Ġrif": 8878,
      "Ġlying": 8879,
      "Ġinner": 8880,
      "Ġshoulder": 8881,
      "Ġspokesperson": 8882,
      "ĠGolden": 8883,
      "EP": 8884,
      "ela": 8885,
      "Ġclosing": 8886,
      "ington": 8887,
      "ĠAz": 8888,
      "ĠQueen": 8889,
      "ĠDivision": 8890,
      "ctic": 8891,
      "Ġsurf": 8892,
      "Ġcoaches": 8893,
      "Ġabandoned": 8894,
      "700": 8895,
      "Ġtouchdown": 8896,
      "Ġclothes": 8897,
      "Ġupgrade": 8898,
      "ĠKennedy": 8899,
      "ivals": 8900,
      "Ġshopping": 8901,
      "Ġlucky": 8902,
      "Ġastron": 8903,
      "ĠBang": 8904,
      "ĠYan": 8905,
      "ĠWithout": 8906,
      "xit": 8907,
      "Ġgains": 8908,
      "Ġgenetic": 8909,
      "Ġhint": 8910,
      "ndum": 8911,
      "Ġlunch": 8912,
      "Ġ2019": 8913,
      "Ġpopulations": 8914,
      "Ġretirement": 8915,
      "fund": 8916,
      "Ġarray": 8917,
      "Ġinsisted": 8918,
      "ĠMarvel": 8919,
      "Ġpipeline": 8920,
      "Ġmonitoring": 8921,
      "Ġthrew": 8922,
      "Ġ->": 8923,
      "Ġbread": 8924,
      "ĠUnfortunately": 8925,
      "zed": 8926,
      "ĠTechnology": 8927,
      "eries": 8928,
      "Ġmaps": 8929,
      "ĠBa": 8930,
      "ĠDave": 8931,
      "archy": 8932,
      "ropri": 8933,
      "ĠIndiana": 8934,
      "ijing": 8935,
      "ĠCow": 8936,
      "unicip": 8937,
      "Ġmonthly": 8938,
      "Ġtracking": 8939,
      "ĠSamsung": 8940,
      "Ġprotecting": 8941,
      "erg": 8942,
      "Ġ[*]": 8943,
      "Ġmeasured": 8944,
      "SU": 8945,
      "ĠBC": 8946,
      "ika": 8947,
      "Ġordinary": 8948,
      "ompson": 8949,
      "Yet": 8950,
      "olar": 8951,
      "hesis": 8952,
      "ĠPot": 8953,
      "ĠPres": 8954,
      "Ġrocket": 8955,
      "ĠIndeed": 8956,
      "\")": 8957,
      "Ġscope": 8958,
      "Ġgrid": 8959,
      "theless": 8960,
      "Ġspokeswoman": 8961,
      "ĠGary": 8962,
      "Ġrecall": 8963,
      "cut": 8964,
      "conf": 8965,
      "ĠLewis": 8966,
      "Your": 8967,
      "bow": 8968,
      "abet": 8969,
      "Ġtactics": 8970,
      "inch": 8971,
      "Ġbuff": 8972,
      "Ġpromises": 8973,
      "Ġrequested": 8974,
      "62": 8975,
      "bin": 8976,
      "abeth": 8977,
      "ials": 8978,
      "ĠMain": 8979,
      "Ġblast": 8980,
      "Ġhyper": 8981,
      "sa": 8982,
      "ĠStart": 8983,
      "amac": 8984,
      "Ġmusical": 8985,
      "Ġblocked": 8986,
      "Click": 8987,
      "Ġdance": 8988,
      "ĠBron": 8989,
      "Ġrepresenting": 8990,
      "iki": 8991,
      "ĠPlus": 8992,
      "Source": 8993,
      "Script": 8994,
      "ĠRevolution": 8995,
      "ounding": 8996,
      "ĠVegas": 8997,
      "ĠAcc": 8998,
      "Ġcounts": 8999,
      "Ġloose": 9000,
      "ĠWalker": 9001,
      "Ġcul": 9002,
      "ĠDet": 9003,
      "Ġ(âĢľ": 9004,
      "Ġbeta": 9005,
      "Ġassass": 9006,
      "rogen": 9007,
      "ĠCommon": 9008,
      "ĠBridge": 9009,
      "Ġmidfield": 9010,
      "Note": 9011,
      "Ġabroad": 9012,
      "Ġovers": 9013,
      "ĠHoward": 9014,
      "Ġhoped": 9015,
      "Ġsilver": 9016,
      "Ġmistakes": 9017,
      "Ġstudied": 9018,
      "rection": 9019,
      "Ġclassified": 9020,
      "organ": 9021,
      "Ġtwenty": 9022,
      "Ġportray": 9023,
      "ĠMexican": 9024,
      "Ġhung": 9025,
      "ĠAND": 9026,
      "Ġconcrete": 9027,
      "Ġentitled": 9028,
      "63": 9029,
      "71": 9030,
      "oice": 9031,
      "esty": 9032,
      "Ġdocumentary": 9033,
      "Ġfur": 9034,
      "Ġsupplies": 9035,
      "Ġcitizen": 9036,
      "dri": 9037,
      "Ġdiverse": 9038,
      "Ġintroduce": 9039,
      "Ġlayer": 9040,
      "Ġfrequency": 9041,
      "Ġgal": 9042,
      "aware": 9043,
      "Ġsty": 9044,
      "Ġsevent": 9045,
      "Ġquestioned": 9046,
      "Ġspeaks": 9047,
      "Ġconventional": 9048,
      "Ġskept": 9049,
      "ĠOlympic": 9050,
      "Ke": 9051,
      "ĠAssociated": 9052,
      "Ġdismissed": 9053,
      "Ġmarch": 9054,
      "Ġperforming": 9055,
      "Ġviolation": 9056,
      "Ġbonus": 9057,
      "dated": 9058,
      "Ġtrave": 9059,
      "argo": 9060,
      "ieties": 9061,
      "Ġcriticized": 9062,
      "rite": 9063,
      "ĠUse": 9064,
      "comes": 9065,
      "Ġservers": 9066,
      "Ġcivilian": 9067,
      "Ġyellow": 9068,
      "Ġsmell": 9069,
      "ĠProp": 9070,
      "Ġec": 9071,
      "eneration": 9072,
      "ĠHarvard": 9073,
      "Ġcommonly": 9074,
      "Ġarrive": 9075,
      "oln": 9076,
      "ĠBible": 9077,
      "ĠPage": 9078,
      "Ġ!": 9079,
      "Ġdemonstrated": 9080,
      "geon": 9081,
      "ĠVik": 9082,
      "Ġletting": 9083,
      "oded": 9084,
      "ĠJam": 9085,
      "ERS": 9086,
      "Ġhomeless": 9087,
      "Art": 9088,
      "Ġokay": 9089,
      "Ġgate": 9090,
      "Ġbeauty": 9091,
      "Ġtemperatures": 9092,
      "ĠSaf": 9093,
      "helsea": 9094,
      "ĠHell": 9095,
      "ahu": 9096,
      "uh": 9097,
      "inating": 9098,
      "OK": 9099,
      "ĠAk": 9100,
      "ĠRun": 9101,
      "Ġcontribution": 9102,
      "Ġshadow": 9103,
      "Ġemployed": 9104,
      "ĠIraqi": 9105,
      "quest": 9106,
      "Ġparallel": 9107,
      "backs": 9108,
      "Ġproposals": 9109,
      "Ġpa": 9110,
      "ĠSab": 9111,
      "Ġ95": 9112,
      "ĠGovernor": 9113,
      "Ġspectrum": 9114,
      "Ġbrilliant": 9115,
      "93": 9116,
      "Ġtargeting": 9117,
      "Ġdust": 9118,
      "Ġcapabilities": 9119,
      "Ġbreath": 9120,
      "irts": 9121,
      "ĠLink": 9122,
      "ĠKong": 9123,
      "Ġrepresentatives": 9124,
      "icism": 9125,
      "Ġpropaganda": 9126,
      "was": 9127,
      "acket": 9128,
      "made": 9129,
      "ĠHind": 9130,
      "Ġharassment": 9131,
      "ĠDO": 9132,
      "emic": 9133,
      "Still": 9134,
      "ĠEngine": 9135,
      "party": 9136,
      "Ġconsent": 9137,
      "ĠCapt": 9138,
      "Ġinfo": 9139,
      "Ġtrials": 9140,
      "Ġobjective": 9141,
      "Ġratio": 9142,
      "ĠJonathan": 9143,
      "ultane": 9144,
      "Ġpolitically": 9145,
      "Ġsenator": 9146,
      "Ġwedd": 9147,
      "ĠCredit": 9148,
      "Ġstolen": 9149,
      "Ġscientist": 9150,
      "Ġcelebrate": 9151,
      "Ġrender": 9152,
      "encing": 9153,
      "Ġweekly": 9154,
      "ĠBaltimore": 9155,
      "amacare": 9156,
      "ĠTen": 9157,
      "Ġregistr": 9158,
      "Ġ1992": 9159,
      "92": 9160,
      "umble": 9161,
      "ĠList": 9162,
      "ĠTele": 9163,
      "Ġceremony": 9164,
      "iate": 9165,
      "Ġratings": 9166,
      "âĪĴ": 9167,
      "ĠExt": 9168,
      "ĠAndre": 9169,
      "ĠStore": 9170,
      "Ġreforms": 9171,
      "ĠCBS": 9172,
      "Ġrush": 9173,
      "Ġquoted": 9174,
      "Ġpresidency": 9175,
      "Ġdeficit": 9176,
      "Christ": 9177,
      "Ġmaintained": 9178,
      "Ġcooperation": 9179,
      "erts": 9180,
      "ĠMarsh": 9181,
      "Ġbacter": 9182,
      "ĠNorm": 9183,
      "ĠGraham": 9184,
      "Ġassign": 9185,
      "Ġ2020": 9186,
      "Ġbab": 9187,
      "ĠAL": 9188,
      "ĠLas": 9189,
      "assador": 9190,
      "Ġrom": 9191,
      "Ġreplied": 9192,
      "Ġsubscrib": 9193,
      "Ġwider": 9194,
      "ĠAtlantic": 9195,
      "orious": 9196,
      "Ġclar": 9197,
      "Ġsettled": 9198,
      "Are": 9199,
      "Ġmuseum": 9200,
      "Ġchannels": 9201,
      "ova": 9202,
      "Ġurged": 9203,
      "ocolate": 9204,
      "essee": 9205,
      "Ġexch": 9206,
      "Ġkm": 9207,
      "Ġdeserve": 9208,
      "ĠGalaxy": 9209,
      "Ġdonations": 9210,
      "Ġgenerations": 9211,
      "ĠDeb": 9212,
      "Ġwaters": 9213,
      "ĠPop": 9214,
      "Ġsaving": 9215,
      "ĠUtah": 9216,
      "aping": 9217,
      "Though": 9218,
      "ĠJustin": 9219,
      "Ġstepped": 9220,
      "Ġgent": 9221,
      "Ġprepar": 9222,
      "ĠBureau": 9223,
      "ĠEag": 9224,
      "yer": 9225,
      "ĠSean": 9226,
      "ĠAlexander": 9227,
      "ĠSarah": 9228,
      "Mus": 9229,
      "ĠHold": 9230,
      "Ġlegislative": 9231,
      "Ġinequ": 9232,
      "Ġprovision": 9233,
      "Ġanniversary": 9234,
      "Ġwealthy": 9235,
      "ĠEmpire": 9236,
      "aver": 9237,
      "Ġfool": 9238,
      "acted": 9239,
      "ĠKar": 9240,
      "Ġages": 9241,
      "ĠTro": 9242,
      "ylum": 9243,
      "Ġargues": 9244,
      "Ġlandscape": 9245,
      "usalem": 9246,
      "ĠEff": 9247,
      "Ġcompare": 9248,
      "Ġapproached": 9249,
      "Ġloans": 9250,
      "Ġphenomenon": 9251,
      "David": 9252,
      "Ġpopularity": 9253,
      "oir": 9254,
      "ĠCro": 9255,
      "Ġpredicted": 9256,
      "ĠGetty": 9257,
      "ĠGaza": 9258,
      "oga": 9259,
      "don": 9260,
      "Ġvisiting": 9261,
      "Ġstreaming": 9262,
      "door": 9263,
      "har": 9264,
      "ĠSud": 9265,
      "Ġprotocol": 9266,
      "Ġdrove": 9267,
      "Ġuniversal": 9268,
      "ĠVietnam": 9269,
      "84": 9270,
      "Watch": 9271,
      "vernment": 9272,
      "ĠBeck": 9273,
      "Ġliterature": 9274,
      "Ġreferendum": 9275,
      "Ġpursue": 9276,
      "ĠSus": 9277,
      "ĠCH": 9278,
      "Ġ1993": 9279,
      "Ġpersons": 9280,
      "ĠKeep": 9281,
      "UN": 9282,
      "ĠLiverpool": 9283,
      "Ġwhenever": 9284,
      "supp": 9285,
      "Ġfocusing": 9286,
      "Ġsemi": 9287,
      "Ġunexpected": 9288,
      "ĠDoes": 9289,
      "Ġignored": 9290,
      "ĠTrib": 9291,
      "Ġax": 9292,
      "Ġnic": 9293,
      "ĠPent": 9294,
      "Ġramp": 9295,
      "Ġpreparing": 9296,
      "Ġuniversities": 9297,
      "ĠOklahoma": 9298,
      "emed": 9299,
      "Ġclinical": 9300,
      "rapped": 9301,
      "Ġtransit": 9302,
      "they": 9303,
      "Ġinnocent": 9304,
      "73": 9305,
      "Os": 9306,
      "inals": 9307,
      "Ġcream": 9308,
      "king": 9309,
      "yo": 9310,
      "Ġdad": 9311,
      "irlf": 9312,
      "ses": 9313,
      "berry": 9314,
      "Ġhealthcare": 9315,
      "Ġsalt": 9316,
      "Ġparticipation": 9317,
      "ĠPhotos": 9318,
      "cap": 9319,
      "Ġthorough": 9320,
      "oli": 9321,
      "Ġcongressional": 9322,
      "bably": 9323,
      "adi": 9324,
      "orship": 9325,
      "ĠTed": 9326,
      "ĠAI": 9327,
      "ĠAward": 9328,
      "ĠReagan": 9329,
      "ĠFront": 9330,
[...]
